[PAD]
[UNK]
[CLS]
[SEP]
[MASK]
!
"
#
$
%
&
'
(
)
*
+
,
-
.
/
0
1
2
3
4
5
6
7
8
9
:
;
<
=
>
?
@
[
\
]
^
_
a
b
c
d
e
f
g
h
i
j
k
l
m
n
o
p
q
r
s
t
u
v
w
x
y
z
{
|
}
~
£
¤
¥
§
©
«
®
°
±
²
³
µ
·
¹
º
»
¼
×
ß
æ
÷
ø
đ
ŋ
ɔ
ə
ɡ
ʰ
ˇ
ˈ
ˊ
ˋ
ˍ
ː
˙
˚
ˢ
α
β
γ
δ
ε
η
θ
ι
κ
λ
μ
ν
ο
π
ρ
ς
σ
τ
υ
φ
χ
ψ
ω
а
б
в
г
д
е
ж
з
и
к
л
м
н
о
п
р
с
т
у
ф
х
ц
ч
ш
ы
ь
я
і
ا
ب
ة
ت
د
ر
س
ع
ل
م
ن
ه
و
ي
۩
ก
ง
น
ม
ย
ร
อ
า
เ
๑
་
ღ
ᄀ
ᄁ
ᄂ
ᄃ
ᄅ
ᄆ
ᄇ
ᄈ
ᄉ
ᄋ
ᄌ
ᄎ
ᄏ
ᄐ
ᄑ
ᄒ
ᅡ
ᅢ
ᅣ
ᅥ
ᅦ
ᅧ
ᅨ
ᅩ
ᅪ
ᅬ
ᅭ
ᅮ
ᅯ
ᅲ
ᅳ
ᅴ
ᅵ
ᆨ
ᆫ
ᆯ
ᆷ
ᆸ
ᆺ
ᆻ
ᆼ
ᗜ
ᵃ
ᵉ
ᵍ
ᵏ
ᵐ
ᵒ
ᵘ
‖
„
†
•
‥
‧

‰
′
″
‹
›
※
‿
⁄
ⁱ
⁺
ⁿ
₁
₂
₃
₄
€
℃
№
™
ⅰ
ⅱ
ⅲ
ⅳ
ⅴ
←
↑
→
↓
↔
↗
↘
⇒
∀
−
∕
∙
√
∞
∟
∠
∣
∥
∩
∮
∶
∼
∽
≈
≒
≡
≤
≥
≦
≧
≪
≫
⊙
⋅
⋈
⋯
⌒
①
②
③
④
⑤
⑥
⑦
⑧
⑨
⑩
⑴
⑵
⑶
⑷
⑸
⒈
⒉
⒊
⒋
ⓒ
ⓔ
ⓘ
─
━
│
┃
┅
┆
┊
┌
└
├
┣
═
║
╚
╞
╠
╭
╮
╯
╰
╱
╳
▂
▃
▅
▇
█
▉
▋
▌
▍
▎
■
□
▪
▫
▬
▲
△
▶
►
▼
▽
◆
◇
○
◎
●
◕
◠
◢
◤
☀
★
☆
☕
☞
☺
☼
♀
♂
♠
♡
♣
♥
♦
♪
♫
♬
✈
✔
✕
✖
✦
✨
✪
✰
✿
❀
❤
➜
➤
⦿
、
。
〃
々
〇
〈
〉
《
》
「
」
『
』
【
】
〓
〔
〕
〖
〗
〜
〝
〞
ぁ
あ
ぃ
い
う
ぇ
え
お
か
き
く
け
こ
さ
し
す
せ
そ
た
ち
っ
つ
て
と
な
に
ぬ
ね
の
は
ひ
ふ
へ
ほ
ま
み
む
め
も
ゃ
や
ゅ
ゆ
ょ
よ
ら
り
る
れ
ろ
わ
を
ん
゜
ゝ
ァ
ア
ィ
イ
ゥ
ウ
ェ
エ
ォ
オ
カ
キ
ク
ケ
コ
サ
シ
ス
セ
ソ
タ
チ
ッ
ツ
テ
ト
ナ
ニ
ヌ
ネ
ノ
ハ
ヒ
フ
ヘ
ホ
マ
ミ
ム
メ
モ
ャ
ヤ
ュ
ユ
ョ
ヨ
ラ
リ
ル
レ
ロ
ワ
ヲ
ン
ヶ
・
ー
ヽ
ㄅ
ㄆ
ㄇ
ㄉ
ㄋ
ㄌ
ㄍ
ㄎ
ㄏ
ㄒ
ㄚ
ㄛ
ㄞ
ㄟ
ㄢ
ㄤ
ㄥ
ㄧ
ㄨ
ㆍ
㈦
㊣
㎡
㗎
一
丁
七
万
丈
三
上
下
不
与
丐
丑
专
且
丕
世
丘
丙
业
丛
东
丝
丞
丟
両
丢
两
严
並
丧
丨
个
丫
中
丰
串
临
丶
丸
丹
为
主
丼
丽
举
丿
乂
乃
久
么
义
之
乌
乍
乎
乏
乐
乒
乓
乔
乖
乗
乘
乙
乜
九
乞
也
习
乡
书
乩
买
乱
乳
乾
亀
亂
了
予
争
事
二
于
亏
云
互
五
井
亘
亙
亚
些
亜
亞
亟
亡
亢
交
亥
亦
产
亨
亩
享
京
亭
亮
亲
亳
亵
人
亿
什
仁
仃
仄
仅
仆
仇
今
介
仍
从
仏
仑
仓
仔
仕
他
仗
付
仙
仝
仞
仟
代
令
以
仨
仪
们
仮
仰
仲
件
价
任
份
仿
企
伉
伊
伍
伎
伏
伐
休
伕
众
优
伙
会
伝
伞
伟
传
伢
伤
伦
伪
伫
伯
估
伴
伶
伸
伺
似
伽
佃
但
佇
佈
位
低
住
佐
佑
体
佔
何
佗
佘
余
佚
佛
作
佝
佞
佟
你
佢
佣
佤
佥
佩
佬
佯
佰
佳
併
佶
佻
佼
使
侃
侄
來
侈
例
侍
侏
侑
侖
侗
供
依
侠
価
侣
侥
侦
侧
侨
侬
侮
侯
侵
侶
侷
便
係
促
俄
俊
俎
俏
俐
俑
俗
俘
俚
保
俞
俟
俠
信
俨
俩
俪
俬
俭
修
俯
俱
俳
俸
俺
俾
倆
倉
個
倌
倍
倏
們
倒
倔
倖
倘
候
倚
倜
借
倡
値
倦
倩
倪
倫
倬
倭
倶
债
值
倾
偃
假
偈
偉
偌
偎
偏
偕
做
停
健
側
偵
偶
偷
偻
偽
偿
傀
傅
傍
傑
傘
備
傚
傢
傣
傥
储
傩
催
傭
傲
傳
債
傷
傻
傾
僅
働
像
僑
僕
僖
僚
僥
僧
僭
僮
僱
僵
價
僻
儀
儂
億
儆
儉
儋
儒
儕
儘
償
儡
優
儲
儷
儼
儿
兀
允
元
兄
充
兆
兇
先
光
克
兌
免
児
兑
兒
兔
兖
党
兜
兢
入
內
全
兩
八
公
六
兮
兰
共
兲
关
兴
兵
其
具
典
兹
养
兼
兽
冀
内
円
冇
冈
冉
冊
册
再
冏
冒
冕
冗
写
军
农
冠
冢
冤
冥
冨
冪
冬
冯
冰
冲
决
况
冶
冷
冻
冼
冽
冾
净
凄
准
凇
凈
凉
凋
凌
凍
减
凑
凛
凜
凝
几
凡
凤
処
凪
凭
凯
凰
凱
凳
凶
凸
凹
出
击
函
凿
刀
刁
刃
分
切
刈
刊
刍
刎
刑
划
列
刘
则
刚
创
初
删
判
別
刨
利
刪
别
刮
到
制
刷
券
刹
刺
刻
刽
剁
剂
剃
則
剉
削
剋
剌
前
剎
剐
剑
剔
剖
剛
剜
剝
剣
剤
剥
剧
剩
剪
副
割
創
剷
剽
剿
劃
劇
劈
劉
劊
劍
劏
劑
力
劝
办
功
加
务
劣
动
助
努
劫
劭
励
劲
劳
労
劵
効
劾
势
勁
勃
勇
勉
勋
勐
勒
動
勖
勘
務
勛
勝
勞
募
勢
勤
勧
勳
勵
勸
勺
勻
勾
勿
匀
包
匆
匈
匍
匐
匕
化
北
匙
匝
匠
匡
匣
匪
匮
匯
匱
匹
区
医
匾
匿
區
十
千
卅
升
午
卉
半
卍
华
协
卑
卒
卓
協
单
卖
南
単
博
卜
卞
卟
占
卡
卢
卤
卦
卧
卫
卮
卯
印
危
即
却
卵
卷
卸
卻
卿
厂
厄
厅
历
厉
压
厌
厕
厘
厚
厝
原
厢
厥
厦
厨
厩
厭
厮
厲
厳
去
县
叁
参
參
又
叉
及
友
双
反
収
发
叔
取
受
变
叙
叛
叟
叠
叡
叢
口
古
句
另
叨
叩
只
叫
召
叭
叮
可
台
叱
史
右
叵
叶
号
司
叹
叻
叼
叽
吁
吃
各
吆
合
吉
吊
吋
同
名
后
吏
吐
向
吒
吓
吕
吖
吗
君
吝
吞
吟
吠
吡
否
吧
吨
吩
含
听
吭
吮
启
吱
吳
吴
吵
吶
吸
吹
吻
吼
吽
吾
呀
呂
呃
呆
呈
告
呋
呎
呐
呓
呕
呗
员
呛
呜
呢
呤
呦
周
呱
呲
味
呵
呷
呸
呻
呼
命
咀
咁
咂
咄
咆
咋
和
咎
咏
咐
咒
咔
咕
咖
咗
咘
咙
咚
咛
咣
咤
咦
咧
咨
咩
咪
咫
咬
咭
咯
咱
咲
咳
咸
咻
咽
咿
哀
品
哂
哄
哆
哇
哈
哉
哋
哌
响
哎
哏
哐
哑
哒
哔
哗
哟
員
哥
哦
哧
哨
哩
哪
哭
哮
哲
哺
哼
哽
唁
唄
唆
唇
唉
唏
唐
唑
唔
唠
唤
唧
唬
售
唯
唰
唱
唳
唷
唸
唾
啃
啄
商
啉
啊
問
啓
啕
啖
啜
啞
啟
啡
啤
啥
啦
啧
啪
啫
啬
啮
啰
啱
啲
啵
啶
啷
啸
啻
啼
啾
喀
喂
喃
善
喆
喇
喉
喊
喋
喎
喏
喔
喘
喙
喚
喜
喝
喟
喧
喪
喫
喬
單
喰
喱
喲
喳
喵
営
喷
喹
喺
喻
喽
嗅
嗆
嗇
嗎
嗑
嗒
嗓
嗔
嗖
嗚
嗜
嗝
嗟
嗡
嗣
嗤
嗦
嗨
嗪
嗬
嗯
嗰
嗲
嗳
嗶
嗷
嗽
嘀
嘅
嘆
嘈
嘉
嘌
嘍
嘎
嘔
嘖
嘗
嘘
嘚
嘛
嘜
嘞
嘟
嘢
嘣
嘤
嘧
嘩
嘭
嘮
嘯
嘰
嘱
嘲
嘴
嘶
嘸
嘹
嘻
嘿
噁
噌
噎
噓
噔
噗
噙
噜
噠
噢
噤
器
噩
噪
噬
噱
噴
噶
噸
噹
噻
噼
嚀
嚇
嚎
嚏
嚐
嚓
嚕
嚟
嚣
嚥
嚨
嚮
嚴
嚷
嚼
囂
囉
囊
囍
囑
囔
囗
囚
四
囝
回
囟
因
囡
团
団
囤
囧
囪
囫
园
困
囱
囲
図
围
囹
固
国
图
囿
圃
圄
圆
圈
國
圍
圏
園
圓
圖
團
圜
土
圣
圧
在
圩
圭
地
圳
场
圻
圾
址
坂
均
坊
坍
坎
坏
坐
坑
块
坚
坛
坝
坞
坟
坠
坡
坤
坦
坨
坪
坯
坳
坵
坷
垂
垃
垄
型
垒
垚
垛
垠
垢
垣
垦
垩
垫
垭
垮
垵
埂
埃
埋
城
埔
埕
埗
域
埠
埤
埵
執
埸
培
基
埼
堀
堂
堃
堅
堆
堇
堑
堕
堙
堡
堤
堪
堯
堰
報
場
堵
堺
堿
塊
塌
塑
塔
塗
塘
塚
塞
塢
塩
填
塬
塭
塵
塾
墀
境
墅
墉
墊
墒
墓
増
墘
墙
墜
增
墟
墨
墩
墮
墳
墻
墾
壁
壅
壆
壇
壊
壑
壓
壕
壘
壞
壟
壢
壤
壩
士
壬
壮
壯
声
売
壳
壶
壹
壺
壽
处
备
変
复
夏
夔
夕
外
夙
多
夜
够
夠
夢
夥
大
天
太
夫
夭
央
夯
失
头
夷
夸
夹
夺
夾
奂
奄
奇
奈
奉
奋
奎
奏
奐
契
奔
奕
奖
套
奘
奚
奠
奢
奥
奧
奪
奬
奮
女
奴
奶
奸
她
好
如
妃
妄
妆
妇
妈
妊
妍
妒
妓
妖
妘
妙
妝
妞
妣
妤
妥
妨
妩
妪
妮
妲
妳
妹
妻
妾
姆
姉
姊
始
姍
姐
姑
姒
姓
委
姗
姚
姜
姝
姣
姥
姦
姨
姪
姫
姬
姹
姻
姿
威
娃
娄
娅
娆
娇
娉
娑
娓
娘
娛
娜
娟
娠
娣
娥
娩
娱
娲
娴
娶
娼
婀
婁
婆
婉
婊
婕
婚
婢
婦
婧
婪
婭
婴
婵
婶
婷
婺
婿
媒
媚
媛
媞
媧
媲
媳
媽
媾
嫁
嫂
嫉
嫌
嫑
嫔
嫖
嫘
嫚
嫡
嫣
嫦
嫩
嫲
嫵
嫻
嬅
嬉
嬌
嬗
嬛
嬢
嬤
嬪
嬰
嬴
嬷
嬸
嬿
孀
孃
子
孑
孔
孕
孖
字
存
孙
孚
孛
孜
孝
孟
孢
季
孤
学
孩
孪
孫
孬
孰
孱
孳
孵
學
孺
孽
孿
宁
它
宅
宇
守
安
宋
完
宏
宓
宕
宗
官
宙
定
宛
宜
宝
实
実
宠
审
客
宣
室
宥
宦
宪
宫
宮
宰
害
宴
宵
家
宸
容
宽
宾
宿
寂
寄
寅
密
寇
富
寐
寒
寓
寛
寝
寞
察
寡
寢
寥
實
寧
寨
審
寫
寬
寮
寰
寵
寶
寸
对
寺
寻
导
対
寿
封
専
射
将
將
專
尉
尊
尋
對
導
小
少
尔
尕
尖
尘
尚
尝
尤
尧
尬
就
尴
尷
尸
尹
尺
尻
尼
尽
尾
尿
局
屁
层
屄
居
屆
屈
屉
届
屋
屌
屍
屎
屏
屐
屑
展
屜
属
屠
屡
屢
層
履
屬
屯
山
屹
屿
岀
岁
岂
岌
岐
岑
岔
岖
岗
岘
岙
岚
岛
岡
岩
岫
岬
岭
岱
岳
岷
岸
峇
峋
峒
峙
峡
峤
峥
峦
峨
峪
峭
峯
峰
峴
島
峻
峽
崁
崂
崆
崇
崎
崑
崔
崖
崗
崙
崛
崧
崩
崭
崴
崽
嵇
嵊
嵋
嵌
嵐
嵘
嵩
嵬
嵯
嶂
嶄
嶇
嶋
嶙
嶺
嶼
嶽
巅
巍
巒
巔
巖
川
州
巡
巢
工
左
巧
巨
巩
巫
差
己
已
巳
巴
巷
巻
巽
巾
巿
币
市
布
帅
帆
师
希
帐
帑
帕
帖
帘
帚
帛
帜
帝
帥
带
帧
師
席
帮
帯
帰
帳
帶
帷
常
帼
帽
幀
幂
幄
幅
幌
幔
幕
幟
幡
幢
幣
幫
干
平
年
并
幸
幹
幺
幻
幼
幽
幾
广
庁
広
庄
庆
庇
床
序
庐
库
应
底
庖
店
庙
庚
府
庞
废
庠
度
座
庫
庭
庵
庶
康
庸
庹
庾
廁
廂
廃
廈
廉
廊
廓
廖
廚
廝
廟
廠
廢
廣
廬
廳
延
廷
建
廿
开
弁
异
弃
弄
弈
弊
弋
式
弑
弒
弓
弔
引
弗
弘
弛
弟
张
弥
弦
弧
弩
弭
弯
弱
張
強
弹
强
弼
弾
彅
彆
彈
彌
彎
归
当
录
彗
彙
彝
形
彤
彥
彦
彧
彩
彪
彫
彬
彭
彰
影
彷
役
彻
彼
彿
往
征
径
待
徇
很
徉
徊
律
後
徐
徑
徒
従
徕
得
徘
徙
徜
從
徠
御
徨
復
循
徬
微
徳
徴
徵
德
徹
徼
徽
心
必
忆
忌
忍
忏
忐
忑
忒
忖
志
忘
忙
応
忠
忡
忤
忧
忪
快
忱
念
忻
忽
忿
怀
态
怂
怅
怆
怎
怏
怒
怔
怕
怖
怙
怜
思
怠
怡
急
怦
性
怨
怪
怯
怵
总
怼
恁
恃
恆
恋
恍
恐
恒
恕
恙
恚
恢
恣
恤
恥
恨
恩
恪
恫
恬
恭
息
恰
恳
恵
恶
恸
恺
恻
恼
恿
悄
悅
悉
悌
悍
悔
悖
悚
悟
悠
患
悦
您
悩
悪
悬
悯
悱
悲
悴
悵
悶
悸
悻
悼
悽
情
惆
惇
惊
惋
惑
惕
惘
惚
惜
惟
惠
惡
惦
惧
惨
惩
惫
惬
惭
惮
惯
惰
惱
想
惴
惶
惹
惺
愁
愆
愈
愉
愍
意
愕
愚
愛
愜
感
愣
愤
愧
愫
愷
愿
慄
慈
態
慌
慎
慑
慕
慘
慚
慟
慢
慣
慧
慨
慫
慮
慰
慳
慵
慶
慷
慾
憂
憊
憋
憎
憐
憑
憔
憚
憤
憧
憨
憩
憫
憬
憲
憶
憾
懂
懇
懈
應
懊
懋
懑
懒
懦
懲
懵
懶
懷
懸
懺
懼
懾
懿
戀
戈
戊
戌
戍
戎
戏
成
我
戒
戕
或
战
戚
戛
戟
戡
戦
截
戬
戮
戰
戲
戳
戴
戶
户
戸
戻
戾
房
所
扁
扇
扈
扉
手
才
扎
扑
扒
打
扔
払
托
扛
扣
扦
执
扩
扪
扫
扬
扭
扮
扯
扰
扱
扳
扶
批
扼
找
承
技
抄
抉
把
抑
抒
抓
投
抖
抗
折
抚
抛
抜
択
抟
抠
抡
抢
护
报
抨
披
抬
抱
抵
抹
押
抽
抿
拂
拄
担
拆
拇
拈
拉
拋
拌
拍
拎
拐
拒
拓
拔
拖
拗
拘
拙
拚
招
拜
拟
拡
拢
拣
拥
拦
拧
拨
择
括
拭
拮
拯
拱
拳
拴
拷
拼
拽
拾
拿
持
挂
指
挈
按
挎
挑
挖
挙
挚
挛
挝
挞
挟
挠
挡
挣
挤
挥
挨
挪
挫
振
挲
挹
挺
挽
挾
捂
捅
捆
捉
捋
捌
捍
捎
捏
捐
捕
捞
损
捡
换
捣
捧
捨
捩
据
捱
捲
捶
捷
捺
捻
掀
掂
掃
掇
授
掉
掌
掏
掐
排
掖
掘
掙
掛
掠
採
探
掣
接
控
推
掩
措
掬
掰
掲
掳
掴
掷
掸
掺
揀
揃
揄
揆
揉
揍
描
提
插
揖
揚
換
握
揣
揩
揪
揭
揮
援
揶
揸
揹
揽
搀
搁
搂
搅
損
搏
搐
搓
搔
搖
搗
搜
搞
搡
搪
搬
搭
搵
搶
携
搽
摀
摁
摄
摆
摇
摈
摊
摒
摔
摘
摞
摟
摧
摩
摯
摳
摸
摹
摺
摻
撂
撃
撅
撇
撈
撐
撑
撒
撓
撕
撚
撞
撤
撥
撩
撫
撬
播
撮
撰
撲
撵
撷
撸
撻
撼
撿
擀
擁
擂
擄
擅
擇
擊
擋
操
擎
擒
擔
擘
據
擞
擠
擡
擢
擦
擬
擰
擱
擲
擴
擷
擺
擼
擾
攀
攏
攒
攔
攘
攙
攜
攝
攞
攢
攣
攤
攥
攪
攫
攬
支
收
攸
改
攻
放
政
故
效
敌
敍
敎
敏
救
敕
敖
敗
敘
教
敛
敝
敞
敢
散
敦
敬
数
敲
整
敵
敷
數
斂
斃
文
斋
斌
斎
斐
斑
斓
斗
料
斛
斜
斟
斡
斤
斥
斧
斩
斫
斬
断
斯
新
斷
方
於
施
旁
旃
旅
旋
旌
旎
族
旖
旗
无
既
日
旦
旧
旨
早
旬
旭
旮
旱
时
旷
旺
旻
昀
昂
昆
昇
昉
昊
昌
明
昏
易
昔
昕
昙
星
映
春
昧
昨
昭
是
昱
昴
昵
昶
昼
显
晁
時
晃
晉
晋
晌
晏
晒
晓
晔
晕
晖
晗
晚
晝
晞
晟
晤
晦
晨
晩
普
景
晰
晴
晶
晷
智
晾
暂
暄
暇
暈
暉
暌
暐
暑
暖
暗
暝
暢
暧
暨
暫
暮
暱
暴
暸
暹
曄
曆
曇
曉
曖
曙
曜
曝
曠
曦
曬
曰
曲
曳
更
書
曹
曼
曾
替
最
會
月
有
朋
服
朐
朔
朕
朗
望
朝
期
朦
朧
木
未
末
本
札
朮
术
朱
朴
朵
机
朽
杀
杂
权
杆
杈
杉
李
杏
材
村
杓
杖
杜
杞
束
杠
条
来
杨
杭
杯
杰
東
杳
杵
杷
杼
松
板
极
构
枇
枉
枋
析
枕
林
枚
果
枝
枢
枣
枪
枫
枭
枯
枰
枱
枳
架
枷
枸
柄
柏
某
柑
柒
染
柔
柘
柚
柜
柞
柠
柢
查
柩
柬
柯
柱
柳
柴
柵
査
柿
栀
栃
栄
栅
标
栈
栉
栋
栎
栏
树
栓
栖
栗
校
栩
株
样
核
根
格
栽
栾
桀
桁
桂
桃
桅
框
案
桉
桌
桎
桐
桑
桓
桔
桜
桠
桡
桢
档
桥
桦
桧
桨
桩
桶
桿
梁
梅
梆
梏
梓
梗
條
梟
梢
梦
梧
梨
梭
梯
械
梳
梵
梶
检
棂
棄
棉
棋
棍
棒
棕
棗
棘
棚
棟
棠
棣
棧
森
棱
棲
棵
棹
棺
椁
椅
椋
植
椎
椒
検
椪
椭
椰
椹
椽
椿
楂
楊
楓
楔
楚
楝
楞
楠
楣
楨
楫
業
楮
極
楷
楸
楹
楼
楽
概
榄
榆
榈
榉
榔
榕
榖
榛
榜
榨
榫
榭
榮
榱
榴
榷
榻
槁
槃
構
槌
槍
槎
槐
槓
様
槛
槟
槤
槭
槲
槳
槻
槽
槿
樁
樂
樊
樑
樓
標
樞
樟
模
樣
権
横
樫
樯
樱
樵
樸
樹
樺
樽
樾
橄
橇
橋
橐
橘
橙
機
橡
橢
橫
橱
橹
橼
檀
檄
檎
檐
檔
檗
檜
檢
檬
檯
檳
檸
檻
櫃
櫚
櫛
櫥
櫸
櫻
欄
權
欒
欖
欠
次
欢
欣
欧
欲
欸
欺
欽
款
歆
歇
歉
歌
歎
歐
歓
歙
歛
歡
止
正
此
步
武
歧
歩
歪
歯
歲
歳
歴
歷
歸
歹
死
歼
殁
殃
殆
殇
殉
殊
残
殒
殓
殖
殘
殞
殡
殤
殭
殯
殲
殴
段
殷
殺
殼
殿
毀
毁
毂
毅
毆
毋
母
毎
每
毒
毓
比
毕
毗
毘
毙
毛
毡
毫
毯
毽
氈
氏
氐
民
氓
气
氖
気
氙
氛
氟
氡
氢
氣
氤
氦
氧
氨
氪
氫
氮
氯
氰
氲
水
氷
永
氹
氾
汀
汁
求
汆
汇
汉
汎
汐
汕
汗
汙
汛
汝
汞
江
池
污
汤
汨
汩
汪
汰
汲
汴
汶
汹
決
汽
汾
沁
沂
沃
沅
沈
沉
沌
沏
沐
沒
沓
沖
沙
沛
沟
没
沢
沣
沥
沦
沧
沪
沫
沭
沮
沱
河
沸
油
治
沼
沽
沾
沿
況
泄
泉
泊
泌
泓
法
泗
泛
泞
泠
泡
波
泣
泥
注
泪
泫
泮
泯
泰
泱
泳
泵
泷
泸
泻
泼
泽
泾
洁
洄
洋
洒
洗
洙
洛
洞
津
洩
洪
洮
洱
洲
洵
洶
洸
洹
活
洼
洽
派
流
浃
浄
浅
浆
浇
浊
测
济
浏
浑
浒
浓
浔
浙
浚
浜
浣
浦
浩
浪
浬
浮
浯
浴
海
浸
涂
涅
涇
消
涉
涌
涎
涓
涔
涕
涙
涛
涝
涞
涟
涠
涡
涣
涤
润
涧
涨
涩
涪
涮
涯
液
涵
涸
涼
涿
淀
淄
淅
淆
淇
淋
淌
淑
淒
淖
淘
淙
淚
淞
淡
淤
淦
淨
淩
淪
淫
淬
淮
深
淳
淵
混
淹
淺
添
淼
清
済
渉
渊
渋
渍
渎
渐
渔
渗
渙
渚
減
渝
渠
渡
渣
渤
渥
渦
温
測
渭
港
渲
渴
游
渺
渾
湃
湄
湊
湍
湖
湘
湛
湟
湧
湫
湮
湯
湳
湾
湿
満
溃
溅
溉
溏
源
準
溜
溝
溟
溢
溥
溧
溪
溫
溯
溱
溴
溶
溺
溼
滁
滂
滄
滅
滇
滋
滌
滑
滓
滔
滕
滙
滚
滝
滞
滟
满
滢
滤
滥
滦
滨
滩
滬
滯
滲
滴
滷
滸
滾
滿
漁
漂
漆
漉
漏
漓
演
漕
漠
漢
漣
漩
漪
漫
漬
漯
漱
漲
漳
漸
漾
漿
潆
潇
潋
潍
潑
潔
潘
潛
潜
潞
潟
潢
潤
潦
潧
潭
潮
潰
潴
潸
潺
潼
澀
澄
澆
澈
澍
澎
澗
澜
澡
澤
澧
澱
澳
澹
激
濁
濂
濃
濑
濒
濕
濘
濛
濟
濠
濡
濤
濫
濬
濮
濯
濱
濺
濾
瀅
瀆
瀉
瀋
瀏
瀑
瀕
瀘
瀚
瀛
瀝
瀞
瀟
瀧
瀨
瀬
瀰
瀾
灌
灏
灑
灘
灝
灞
灣
火
灬
灭
灯
灰
灵
灶
灸
灼
災
灾
灿
炀
炁
炅
炉
炊
炎
炒
炔
炕
炖
炙
炜
炫
炬
炭
炮
炯
炳
炷
炸
点
為
炼
炽
烁
烂
烃
烈
烊
烏
烘
烙
烛
烟
烤
烦
烧
烨
烩
烫
烬
热
烯
烷
烹
烽
焉
焊
焕
焖
焗
焘
焙
焚
焜
無
焦
焯
焰
焱
然
焼
煅
煉
煊
煌
煎
煒
煖
煙
煜
煞
煤
煥
煦
照
煨
煩
煮
煲
煸
煽
熄
熊
熏
熒
熔
熙
熟
熠
熨
熬
熱
熵
熹
熾
燁
燃
燄
燈
燉
燊
燎
燒
燔
燕
燙
燜
營
燥
燦
燧
燭
燮
燴
燻
燼
燿
爆
爍
爐
爛
爪
爬
爭
爰
爱
爲
爵
父
爷
爸
爹
爺
爻
爽
爾
牆
片
版
牌
牍
牒
牙
牛
牝
牟
牠
牡
牢
牦
牧
物
牯
牲
牴
牵
特
牺
牽
犀
犁
犄
犊
犍
犒
犢
犧
犬
犯
状
犷
犸
犹
狀
狂
狄
狈
狎
狐
狒
狗
狙
狞
狠
狡
狩
独
狭
狮
狰
狱
狸
狹
狼
狽
猎
猕
猖
猗
猙
猛
猜
猝
猥
猩
猪
猫
猬
献
猴
猶
猷
猾
猿
獄
獅
獎
獐
獒
獗
獠
獣
獨
獭
獰
獲
獵
獷
獸
獺
獻
獼
獾
玄
率
玉
王
玑
玖
玛
玟
玠
玥
玩
玫
玮
环
现
玲
玳
玷
玺
玻
珀
珂
珅
珈
珉
珊
珍
珏
珐
珑
珙
珞
珠
珣
珥
珩
珪
班
珮
珲
珺
現
球
琅
理
琇
琉
琊
琍
琏
琐
琛
琢
琥
琦
琨
琪
琬
琮
琰
琲
琳
琴
琵
琶
琺
琼
瑀
瑁
瑄
瑋
瑕
瑗
瑙
瑚
瑛
瑜
瑞
瑟
瑠
瑣
瑤
瑩
瑪
瑯
瑰
瑶
瑾
璀
璁
璃
璇
璉
璋
璎
璐
璜
璞
璟
璧
璨
環
璽
璿
瓊
瓏
瓒
瓜
瓢
瓣
瓤
瓦
瓮
瓯
瓴
瓶
瓷
甄
甌
甕
甘
甙
甚
甜
生
產
産
甥
甦
用
甩
甫
甬
甭
甯
田
由
甲
申
电
男
甸
町
画
甾
畀
畅
界
畏
畑
畔
留
畜
畝
畢
略
畦
番
畫
異
畲
畳
畴
當
畸
畹
畿
疆
疇
疊
疏
疑
疔
疖
疗
疙
疚
疝
疟
疡
疣
疤
疥
疫
疮
疯
疱
疲
疳
疵
疸
疹
疼
疽
疾
痂
病
症
痈
痉
痊
痍
痒
痔
痕
痘
痙
痛
痞
痠
痢
痣
痤
痧
痨
痪
痫
痰
痱
痴
痹
痺
痼
痿
瘀
瘁
瘋
瘍
瘓
瘘
瘙
瘟
瘠
瘡
瘢
瘤
瘦
瘧
瘩
瘪
瘫
瘴
瘸
瘾
療
癇
癌
癒
癖
癜
癞
癡
癢
癣
癥
癫
癬
癮
癱
癲
癸
発
登
發
白
百
皂
的
皆
皇
皈
皋
皎
皑
皓
皖
皙
皚
皮
皰
皱
皴
皺
皿
盂
盃
盅
盆
盈
益
盎
盏
盐
监
盒
盔
盖
盗
盘
盛
盜
盞
盟
盡
監
盤
盥
盧
盪
目
盯
盱
盲
直
相
盹
盼
盾
省
眈
眉
看
県
眙
眞
真
眠
眦
眨
眩
眯
眶
眷
眸
眺
眼
眾
着
睁
睇
睏
睐
睑
睛
睜
睞
睡
睢
督
睥
睦
睨
睪
睫
睬
睹
睽
睾
睿
瞄
瞅
瞇
瞋
瞌
瞎
瞑
瞒
瞓
瞞
瞟
瞠
瞥
瞧
瞩
瞪
瞬
瞭
瞰
瞳
瞻
瞼
瞿
矇
矍
矗
矚
矛
矜
矢
矣
知
矩
矫
短
矮
矯
石
矶
矽
矾
矿
码
砂
砌
砍
砒
研
砖
砗
砚
砝
砣
砥
砧
砭
砰
砲
破
砷
砸
砺
砼
砾
础
硅
硐
硒
硕
硝
硫
硬
确
硯
硼
碁
碇
碉
碌
碍
碎
碑
碓
碗
碘
碚
碛
碟
碣
碧
碩
碰
碱
碳
碴
確
碼
碾
磁
磅
磊
磋
磐
磕
磚
磡
磨
磬
磯
磲
磷
磺
礁
礎
礙
礡
礦
礪
礫
礴
示
礼
社
祀
祁
祂
祇
祈
祉
祎
祐
祕
祖
祗
祚
祛
祜
祝
神
祟
祠
祢
祥
票
祭
祯
祷
祸
祺
祿
禀
禁
禄
禅
禍
禎
福
禛
禦
禧
禪
禮
禱
禹
禺
离
禽
禾
禿
秀
私
秃
秆
秉
秋
种
科
秒
秘
租
秣
秤
秦
秧
秩
秭
积
称
秸
移
秽
稀
稅
程
稍
税
稔
稗
稚
稜
稞
稟
稠
稣
種
稱
稲
稳
稷
稹
稻
稼
稽
稿
穀
穂
穆
穌
積
穎
穗
穢
穩
穫
穴
究
穷
穹
空
穿
突
窃
窄
窈
窍
窑
窒
窓
窕
窖
窗
窘
窜
窝
窟
窠
窥
窦
窨
窩
窪
窮
窯
窺
窿
竄
竅
竇
竊
立
竖
站
竜
竞
竟
章
竣
童
竭
端
競
竹
竺
竽
竿
笃
笆
笈
笋
笏
笑
笔
笙
笛
笞
笠
符
笨
第
笹
笺
笼
筆
等
筊
筋
筍
筏
筐
筑
筒
答
策
筛
筝
筠
筱
筲
筵
筷
筹
签
简
箇
箋
箍
箏
箐
箔
箕
算
箝
管
箩
箫
箭
箱
箴
箸
節
篁
範
篆
篇
築
篑
篓
篙
篝
篠
篡
篤
篩
篪
篮
篱
篷
簇
簌
簍
簡
簦
簧
簪
簫
簷
簸
簽
簾
簿
籁
籃
籌
籍
籐
籟
籠
籤
籬
籮
籲
米
类
籼
籽
粄
粉
粑
粒
粕
粗
粘
粟
粤
粥
粧
粪
粮
粱
粲
粳
粵
粹
粼
粽
精
粿
糅
糊
糍
糕
糖
糗
糙
糜
糞
糟
糠
糧
糬
糯
糰
糸
系
糾
紀
紂
約
紅
紉
紊
紋
納
紐
紓
純
紗
紘
紙
級
紛
紜
素
紡
索
紧
紫
紮
累
細
紳
紹
紺
終
絃
組
絆
経
結
絕
絞
絡
絢
給
絨
絮
統
絲
絳
絵
絶
絹
綁
綏
綑
經
継
続
綜
綠
綢
綦
綫
綬
維
綱
網
綴
綵
綸
綺
綻
綽
綾
綿
緊
緋
総
緑
緒
緘
線
緝
緞
締
緣
編
緩
緬
緯
練
緹
緻
縁
縄
縈
縛
縝
縣
縫
縮
縱
縴
縷
總
績
繁
繃
繆
繇
繋
織
繕
繚
繞
繡
繩
繪
繫
繭
繳
繹
繼
繽
纂
續
纍
纏
纓
纔
纖
纜
纠
红
纣
纤
约
级
纨
纪
纫
纬
纭
纯
纰
纱
纲
纳
纵
纶
纷
纸
纹
纺
纽
纾
线
绀
练
组
绅
细
织
终
绊
绍
绎
经
绑
绒
结
绔
绕
绘
给
绚
绛
络
绝
绞
统
绡
绢
绣
绥
绦
继
绩
绪
绫
续
绮
绯
绰
绳
维
绵
绶
绷
绸
绻
综
绽
绾
绿
缀
缄
缅
缆
缇
缈
缉
缎
缓
缔
缕
编
缘
缙
缚
缜
缝
缠
缢
缤
缥
缨
缩
缪
缭
缮
缰
缱
缴
缸
缺
缽
罂
罄
罌
罐
网
罔
罕
罗
罚
罡
罢
罩
罪
置
罰
署
罵
罷
罹
羁
羅
羈
羊
羌
美
羔
羚
羞
羟
羡
羣
群
羥
羧
羨
義
羯
羲
羸
羹
羽
羿
翁
翅
翊
翌
翎
習
翔
翘
翟
翠
翡
翦
翩
翰
翱
翳
翹
翻
翼
耀
老
考
耄
者
耆
耋
而
耍
耐
耒
耕
耗
耘
耙
耦
耨
耳
耶
耷
耸
耻
耽
耿
聂
聆
聊
聋
职
聒
联
聖
聘
聚
聞
聪
聯
聰
聲
聳
聴
聶
職
聽
聾
聿
肃
肄
肅
肆
肇
肉
肋
肌
肏
肓
肖
肘
肚
肛
肝
肠
股
肢
肤
肥
肩
肪
肮
肯
肱
育
肴
肺
肽
肾
肿
胀
胁
胃
胄
胆
背
胍
胎
胖
胚
胛
胜
胝
胞
胡
胤
胥
胧
胫
胭
胯
胰
胱
胳
胴
胶
胸
胺
能
脂
脅
脆
脇
脈
脉
脊
脍
脏
脐
脑
脓
脖
脘
脚
脛
脣
脩
脫
脯
脱
脲
脳
脸
脹
脾
腆
腈
腊
腋
腌
腎
腐
腑
腓
腔
腕
腥
腦
腩
腫
腭
腮
腰
腱
腳
腴
腸
腹
腺
腻
腼
腾
腿
膀
膈
膊
膏
膑
膘
膚
膛
膜
膝
膠
膦
膨
膩
膳
膺
膻
膽
膾
膿
臀
臂
臃
臆
臉
臊
臍
臓
臘
臟
臣
臥
臧
臨
自
臬
臭
至
致
臺
臻
臼
臾
舀
舂
舅
舆
與
興
舉
舊
舌
舍
舎
舐
舒
舔
舖
舗
舛
舜
舞
舟
航
舫
般
舰
舱
舵
舶
舷
舸
船
舺
舾
艇
艋
艘
艙
艦
艮
良
艰
艱
色
艳
艷
艹
艺
艾
节
芃
芈
芊
芋
芍
芎
芒
芙
芜
芝
芡
芥
芦
芩
芪
芫
芬
芭
芮
芯
花
芳
芷
芸
芹
芻
芽
芾
苁
苄
苇
苋
苍
苏
苑
苒
苓
苔
苕
苗
苛
苜
苞
苟
苡
苣
若
苦
苫
苯
英
苷
苹
苻
茁
茂
范
茄
茅
茉
茎
茏
茗
茜
茧
茨
茫
茬
茭
茯
茱
茲
茴
茵
茶
茸
茹
茼
荀
荃
荆
草
荊
荏
荐
荒
荔
荖
荘
荚
荞
荟
荠
荡
荣
荤
荥
荧
荨
荪
荫
药
荳
荷
荸
荻
荼
荽
莅
莆
莉
莊
莎
莒
莓
莖
莘
莞
莠
莢
莧
莪
莫
莱
莲
莴
获
莹
莺
莽
莿
菀
菁
菅
菇
菈
菊
菌
菏
菓
菖
菘
菜
菟
菠
菡
菩
華
菱
菲
菸
菽
萁
萃
萄
萊
萋
萌
萍
萎
萘
萝
萤
营
萦
萧
萨
萩
萬
萱
萵
萸
萼
落
葆
葉
著
葚
葛
葡
董
葦
葩
葫
葬
葭
葯
葱
葳
葵
葷
葺
蒂
蒋
蒐
蒔
蒙
蒜
蒞
蒟
蒡
蒨
蒲
蒸
蒹
蒻
蒼
蒿
蓁
蓄
蓆
蓉
蓋
蓑
蓓
蓖
蓝
蓟
蓦
蓬
蓮
蓼
蓿
蔑
蔓
蔔
蔗
蔘
蔚
蔡
蔣
蔥
蔫
蔬
蔭
蔵
蔷
蔺
蔻
蔼
蔽
蕁
蕃
蕈
蕉
蕊
蕎
蕙
蕤
蕨
蕩
蕪
蕭
蕲
蕴
蕻
蕾
薄
薅
薇
薈
薊
薏
薑
薔
薙
薛
薦
薨
薩
薪
薬
薯
薰
薹
藉
藍
藏
藐
藓
藕
藜
藝
藤
藥
藩
藹
藻
藿
蘆
蘇
蘊
蘋
蘑
蘚
蘭
蘸
蘼
蘿
虎
虏
虐
虑
虔
處
虚
虛
虜
虞
號
虢
虧
虫
虬
虱
虹
虻
虽
虾
蚀
蚁
蚂
蚊
蚌
蚓
蚕
蚜
蚝
蚣
蚤
蚩
蚪
蚯
蚱
蚵
蛀
蛆
蛇
蛊
蛋
蛎
蛐
蛔
蛙
蛛
蛟
蛤
蛭
蛮
蛰
蛳
蛹
蛻
蛾
蜀
蜂
蜃
蜆
蜇
蜈
蜊
蜍
蜒
蜓
蜕
蜗
蜘
蜚
蜜
蜡
蜢
蜥
蜱
蜴
蜷
蜻
蜿
蝇
蝈
蝉
蝌
蝎
蝕
蝗
蝙
蝟
蝠
蝦
蝨
蝴
蝶
蝸
蝼
螂
螃
融
螞
螢
螨
螯
螳
螺
蟀
蟄
蟆
蟋
蟎
蟑
蟒
蟠
蟬
蟲
蟹
蟻
蟾
蠅
蠍
蠔
蠕
蠛
蠟
蠡
蠢
蠣
蠱
蠶
蠹
蠻
血
衄
衅
衆
行
衍
術
衔
街
衙
衛
衝
衞
衡
衢
衣
补
表
衩
衫
衬
衮
衰
衲
衷
衹
衾
衿
袁
袂
袄
袅
袈
袋
袍
袒
袖
袜
袞
袤
袪
被
袭
袱
裁
裂
装
裆
裊
裏
裔
裕
裘
裙
補
裝
裟
裡
裤
裨
裱
裳
裴
裸
裹
製
裾
褂
複
褐
褒
褓
褔
褚
褥
褪
褫
褲
褶
褻
襁
襄
襟
襠
襪
襬
襯
襲
西
要
覃
覆
覇
見
規
覓
視
覚
覦
覧
親
覬
観
覷
覺
覽
觀
见
观
规
觅
视
览
觉
觊
觎
觐
觑
角
觞
解
觥
触
觸
言
訂
計
訊
討
訓
訕
訖
託
記
訛
訝
訟
訣
訥
訪
設
許
訳
訴
訶
診
註
証
詆
詐
詔
評
詛
詞
詠
詡
詢
詣
試
詩
詫
詬
詭
詮
詰
話
該
詳
詹
詼
誅
誇
誉
誌
認
誓
誕
誘
語
誠
誡
誣
誤
誥
誦
誨
說
説
読
誰
課
誹
誼
調
諄
談
請
諏
諒
論
諗
諜
諡
諦
諧
諫
諭
諮
諱
諳
諷
諸
諺
諾
謀
謁
謂
謄
謊
謎
謐
謔
謗
謙
講
謝
謠
謨
謬
謹
謾
譁
證
譎
譏
識
譙
譚
譜
警
譬
譯
議
譲
譴
護
譽
讀
變
讓
讚
讞
计
订
认
讥
讧
讨
让
讪
讫
训
议
讯
记
讲
讳
讴
讶
讷
许
讹
论
讼
讽
设
访
诀
证
诃
评
诅
识
诈
诉
诊
诋
词
诏
译
试
诗
诘
诙
诚
诛
话
诞
诟
诠
诡
询
诣
诤
该
详
诧
诩
诫
诬
语
误
诰
诱
诲
说
诵
诶
请
诸
诺
读
诽
课
诿
谀
谁
调
谄
谅
谆
谈
谊
谋
谌
谍
谎
谏
谐
谑
谒
谓
谔
谕
谗
谘
谙
谚
谛
谜
谟
谢
谣
谤
谥
谦
谧
谨
谩
谪
谬
谭
谯
谱
谲
谴
谶
谷
豁
豆
豇
豈
豉
豊
豌
豎
豐
豔
豚
象
豢
豪
豫
豬
豹
豺
貂
貅
貌
貓
貔
貘
貝
貞
負
財
貢
貧
貨
販
貪
貫
責
貯
貰
貳
貴
貶
買
貸
費
貼
貽
貿
賀
賁
賂
賃
賄
資
賈
賊
賑
賓
賜
賞
賠
賡
賢
賣
賤
賦
質
賬
賭
賴
賺
購
賽
贅
贈
贊
贍
贏
贓
贖
贛
贝
贞
负
贡
财
责
贤
败
账
货
质
贩
贪
贫
贬
购
贮
贯
贰
贱
贲
贴
贵
贷
贸
费
贺
贻
贼
贾
贿
赁
赂
赃
资
赅
赈
赊
赋
赌
赎
赏
赐
赓
赔
赖
赘
赚
赛
赝
赞
赠
赡
赢
赣
赤
赦
赧
赫
赭
走
赳
赴
赵
赶
起
趁
超
越
趋
趕
趙
趟
趣
趨
足
趴
趵
趸
趺
趾
跃
跄
跆
跋
跌
跎
跑
跖
跚
跛
距
跟
跡
跤
跨
跩
跪
路
跳
践
跷
跹
跺
跻
踉
踊
踌
踏
踐
踝
踞
踟
踢
踩
踪
踮
踱
踴
踵
踹
蹂
蹄
蹇
蹈
蹉
蹊
蹋
蹑
蹒
蹙
蹟
蹣
蹤
蹦
蹩
蹬
蹭
蹲
蹴
蹶
蹺
蹼
蹿
躁
躇
躉
躊
躋
躍
躏
躪
身
躬
躯
躲
躺
軀
車
軋
軌
軍
軒
軟
転
軸
軼
軽
軾
較
載
輒
輓
輔
輕
輛
輝
輟
輩
輪
輯
輸
輻
輾
輿
轄
轅
轆
轉
轍
轎
轟
车
轧
轨
轩
转
轭
轮
软
轰
轲
轴
轶
轻
轼
载
轿
较
辄
辅
辆
辇
辈
辉
辊
辍
辐
辑
输
辕
辖
辗
辘
辙
辛
辜
辞
辟
辣
辦
辨
辩
辫
辭
辮
辯
辰
辱
農
边
辺
辻
込
辽
达
迁
迂
迄
迅
过
迈
迎
运
近
返
还
这
进
远
违
连
迟
迢
迤
迥
迦
迩
迪
迫
迭
述
迴
迷
迸
迹
迺
追
退
送
适
逃
逅
逆
选
逊
逍
透
逐
递
途
逕
逗
這
通
逛
逝
逞
速
造
逢
連
逮
週
進
逵
逶
逸
逻
逼
逾
遁
遂
遅
遇
遊
運
遍
過
遏
遐
遑
遒
道
達
違
遗
遙
遛
遜
遞
遠
遢
遣
遥
遨
適
遭
遮
遲
遴
遵
遶
遷
選
遺
遼
遽
避
邀
邁
邂
邃
還
邇
邈
邊
邋
邏
邑
邓
邕
邛
邝
邢
那
邦
邨
邪
邬
邮
邯
邰
邱
邳
邵
邸
邹
邺
邻
郁
郅
郊
郎
郑
郜
郝
郡
郢
郤
郦
郧
部
郫
郭
郴
郵
郷
郸
都
鄂
鄉
鄒
鄔
鄙
鄞
鄢
鄧
鄭
鄰
鄱
鄲
鄺
酉
酊
酋
酌
配
酐
酒
酗
酚
酝
酢
酣
酥
酩
酪
酬
酮
酯
酰
酱
酵
酶
酷
酸
酿
醃
醇
醉
醋
醍
醐
醒
醚
醛
醜
醞
醣
醪
醫
醬
醮
醯
醴
醺
釀
釁
采
釉
释
釋
里
重
野
量
釐
金
釗
釘
釜
針
釣
釦
釧
釵
鈀
鈉
鈍
鈎
鈔
鈕
鈞
鈣
鈦
鈪
鈴
鈺
鈾
鉀
鉄
鉅
鉉
鉑
鉗
鉚
鉛
鉤
鉴
鉻
銀
銃
銅
銑
銓
銖
銘
銜
銬
銭
銮
銳
銷
銹
鋁
鋅
鋒
鋤
鋪
鋰
鋸
鋼
錄
錐
錘
錚
錠
錢
錦
錨
錫
錮
錯
録
錳
錶
鍊
鍋
鍍
鍛
鍥
鍰
鍵
鍺
鍾
鎂
鎊
鎌
鎏
鎔
鎖
鎗
鎚
鎧
鎬
鎮
鎳
鏈
鏖
鏗
鏘
鏞
鏟
鏡
鏢
鏤
鏽
鐘
鐮
鐲
鐳
鐵
鐸
鐺
鑄
鑊
鑑
鑒
鑣
鑫
鑰
鑲
鑼
鑽
鑾
鑿
针
钉
钊
钎
钏
钒
钓
钗
钙
钛
钜
钝
钞
钟
钠
钡
钢
钣
钤
钥
钦
钧
钨
钩
钮
钯
钰
钱
钳
钴
钵
钺
钻
钼
钾
钿
铀
铁
铂
铃
铄
铅
铆
铉
铎
铐
铛
铜
铝
铠
铡
铢
铣
铤
铨
铩
铬
铭
铮
铰
铲
铵
银
铸
铺
链
铿
销
锁
锂
锄
锅
锆
锈
锉
锋
锌
锏
锐
锑
错
锚
锟
锡
锢
锣
锤
锥
锦
锭
键
锯
锰
锲
锵
锹
锺
锻
镀
镁
镂
镇
镉
镌
镍
镐
镑
镕
镖
镗
镛
镜
镣
镭
镯
镰
镳
镶
長
长
門
閃
閉
開
閎
閏
閑
閒
間
閔
閘
閡
関
閣
閥
閨
閩
閱
閲
閹
閻
閾
闆
闇
闊
闌
闍
闔
闕
闖
闘
關
闡
闢
门
闪
闫
闭
问
闯
闰
闲
间
闵
闷
闸
闹
闺
闻
闽
闾
阀
阁
阂
阅
阆
阇
阈
阉
阎
阐
阑
阔
阕
阖
阙
阚
阜
队
阡
阪
阮
阱
防
阳
阴
阵
阶
阻
阿
陀
陂
附
际
陆
陇
陈
陋
陌
降
限
陕
陛
陝
陞
陟
陡
院
陣
除
陨
险
陪
陰
陲
陳
陵
陶
陷
陸
険
陽
隅
隆
隈
隊
隋
隍
階
随
隐
隔
隕
隘
隙
際
障
隠
隣
隧
隨
險
隱
隴
隶
隸
隻
隼
隽
难
雀
雁
雄
雅
集
雇
雉
雋
雌
雍
雎
雏
雑
雒
雕
雖
雙
雛
雜
雞
離
難
雨
雪
雯
雰
雲
雳
零
雷
雹
電
雾
需
霁
霄
霆
震
霈
霉
霊
霍
霎
霏
霑
霓
霖
霜
霞
霧
霭
霰
露
霸
霹
霽
霾
靂
靄
靈
青
靓
靖
静
靚
靛
靜
非
靠
靡
面
靥
靦
革
靳
靴
靶
靼
鞅
鞋
鞍
鞏
鞑
鞘
鞠
鞣
鞦
鞭
韆
韋
韌
韓
韜
韦
韧
韩
韬
韭
音
韵
韶
韻
響
頁
頂
頃
項
順
須
頌
預
頑
頒
頓
頗
領
頜
頡
頤
頫
頭
頰
頷
頸
頹
頻
頼
顆
題
額
顎
顏
顔
願
顛
類
顧
顫
顯
顱
顴
页
顶
顷
项
顺
须
顼
顽
顾
顿
颁
颂
预
颅
领
颇
颈
颉
颊
颌
颍
颐
频
颓
颔
颖
颗
题
颚
颛
颜
额
颞
颠
颡
颢
颤
颦
颧
風
颯
颱
颳
颶
颼
飄
飆
风
飒
飓
飕
飘
飙
飚
飛
飞
食
飢
飨
飩
飪
飯
飲
飼
飽
飾
餃
餅
餉
養
餌
餐
餒
餓
餘
餚
餛
餞
餡
館
餮
餵
餾
饅
饈
饋
饌
饍
饑
饒
饕
饗
饞
饥
饨
饪
饬
饭
饮
饯
饰
饱
饲
饴
饵
饶
饷
饺
饼
饽
饿
馀
馁
馄
馅
馆
馈
馋
馍
馏
馒
馔
首
馗
香
馥
馨
馬
馭
馮
馳
馴
駁
駄
駅
駆
駐
駒
駕
駛
駝
駭
駱
駿
騁
騎
騏
験
騙
騨
騰
騷
驀
驅
驊
驍
驒
驕
驗
驚
驛
驟
驢
驥
马
驭
驮
驯
驰
驱
驳
驴
驶
驷
驸
驹
驻
驼
驾
驿
骁
骂
骄
骅
骆
骇
骈
骊
骋
验
骏
骐
骑
骗
骚
骛
骜
骞
骠
骡
骤
骥
骧
骨
骯
骰
骶
骷
骸
骼
髂
髅
髋
髏
髒
髓
體
髖
高
髦
髪
髮
髯
髻
鬃
鬆
鬍
鬓
鬚
鬟
鬢
鬣
鬥
鬧
鬱
鬼
魁
魂
魄
魅
魇
魍
魏
魔
魘
魚
魯
魷
鮑
鮨
鮪
鮭
鮮
鯉
鯊
鯖
鯛
鯨
鯰
鯽
鰍
鰓
鰭
鰲
鰻
鰾
鱈
鱉
鱔
鱗
鱷
鱸
鱼
鱿
鲁
鲈
鲍
鲑
鲛
鲜
鲟
鲢
鲤
鲨
鲫
鲱
鲲
鲶
鲷
鲸
鳃
鳄
鳅
鳌
鳍
鳕
鳖
鳗
鳝
鳞
鳥
鳩
鳳
鳴
鳶
鴉
鴕
鴛
鴦
鴨
鴻
鴿
鵑
鵜
鵝
鵡
鵬
鵰
鵲
鶘
鶩
鶯
鶴
鷗
鷲
鷹
鷺
鸚
鸞
鸟
鸠
鸡
鸢
鸣
鸥
鸦
鸨
鸪
鸭
鸯
鸳
鸵
鸽
鸾
鸿
鹂
鹃
鹄
鹅
鹈
鹉
鹊
鹌
鹏
鹑
鹕
鹘
鹜
鹞
鹤
鹦
鹧
鹫
鹭
鹰
鹳
鹵
鹹
鹼
鹽
鹿
麂
麋
麒
麓
麗
麝
麟
麥
麦
麩
麴
麵
麸
麺
麻
麼
麽
麾
黃
黄
黍
黎
黏
黑
黒
黔
默
黛
黜
黝
點
黠
黨
黯
黴
鼋
鼎
鼐
鼓
鼠
鼬
鼹
鼻
鼾
齁
齊
齋
齐
齒
齡
齢
齣
齦
齿
龄
龅
龈
龊
龋
龌
龍
龐
龔
龕
龙
龚
龛
龜
龟
︰
︱
︶
︿
﹁
﹂
﹍
﹏
﹐
﹑
﹒
﹔
﹕
﹖
﹗
﹙
﹚
﹝
﹞
﹡
﹣
！
＂
＃
＄
％
＆
＇
（
）
＊
＋
，
－
．
／
０
１
２
３
４
５
６
７
８
９
：
；
＜
＝
＞
？
＠
［
＼
］
＾
＿
｀
ａ
ｂ
ｃ
ｄ
ｅ
ｆ
ｇ
ｈ
ｉ
ｊ
ｋ
ｌ
ｍ
ｎ
ｏ
ｐ
ｑ
ｒ
ｓ
ｔ
ｕ
ｖ
ｗ
ｘ
ｙ
ｚ
｛
｜
｝
～
｡
｢
｣
､
･
ｯ
ｰ
ｲ
ｸ
ｼ
ｽ
ﾄ
ﾉ
ﾌ
ﾗ
ﾙ
ﾝ
ﾞ
ﾟ
￣
￥
👍
🔥
😂
😎
yam
10
2017
12
11
2016
20
30
15
06
lofter
##s
2015
by
16
14
18
13
24
17
2014
21
##0
22
19
25
23
com
100
00
05
2013
##a
03
09
08
28
##2
50
01
04
##1
27
02
2012
##3
26
##e
07
##8
##5
##6
##4
##9
##7
29
2011
40
##t
2010
##o
##d
##i
2009
##n
app
www
the
##m
31
##c
##l
##y
##r
##g
2008
60
http
200
qq
##p
80
##f
google
pixnet
90
cookies
tripadvisor
500
##er
##k
35
##h
facebook
2007
2000
70
##b
of
##x
##u
45
300
iphone
32
1000
2006
48
ip
36
in
38
3d
##w
##ing
55
ctrip
##on
##v
33
##の
to
34
400
id
2005
it
37
windows
llc
top
99
42
39
000
led
at
##an
41
51
52
46
49
43
53
44
##z
android
58
and
59
2004
56
vr
##か
5000
2003
47
blogthis
twitter
54
##le
150
ok
2018
57
75
cn
no
ios
##in
##mm
##00
800
on
te
3000
65
2001
360
95
ig
lv
120
##ng
##を
##us
##に
pc
てす
──
600
##te
85
2002
88
##ed
html
ncc
wifi
email
64
blog
is
##10
##て
mail
online
##al
dvd
##ic
studio
##は
##℃
##ia
##と
line
vip
72
##q
98
##ce
##en
for
##is
##ra
##es
##j
usb
net
cp
1999
asia
4g
##cm
diy
new
3c
##お
ta
66
language
vs
apple
tw
86
web
##ne
ipad
62
you
##re
101
68
##tion
ps
de
bt
pony
atm
##2017
1998
67
##ch
ceo
##or
go
##na
av
pro
cafe
96
pinterest
97
63
pixstyleme3c
##ta
more
said
##2016
1997
mp3
700
##ll
nba
jun
##20
92
tv
1995
pm
61
76
nbsp
250
##ie
linux
##ma
cd
110
hd
##17
78
##ion
77
6000
am
##th
##st
94
##se
##et
69
180
gdp
my
105
81
abc
89
flash
79
one
93
1990
1996
##ck
gps
##も
##ly
web885
106
2020
91
##ge
4000
1500
xd
boss
isbn
1994
org
##ry
me
love
##11
0fork
73
##12
3g
##ter
##ar
71
82
##la
hotel
130
1970
pk
83
87
140
ie
##os
##30
##el
74
##50
seo
cpu
##ml
p2p
84
may
##る
sun
tue
internet
cc
posted
youtube
##at
##ン
##man
ii
##ル
##15
abs
nt
pdf
yahoo
ago
1980
##it
news
mac
104
##てす
##me
##り
java
1992
spa
##de
##nt
hk
all
plus
la
1993
##mb
##16
##ve
west
##da
160
air
##い
##ps
から
##to
1989
logo
htc
php
https
fi
momo
##son
sat
##ke
##80
ebd
suv
wi
day
apk
##88
##um
mv
galaxy
wiki
or
brake
##ス
1200
する
this
1991
mon
##こ
❤2017
po
##ない
javascript
life
home
june
##ss
system
900
##ー
##０
pp
1988
world
fb
4k
br
##as
ic
ai
leonardo
safari
##60
live
free
xx
wed
win7
kiehl
##co
lg
o2o
##go
us
235
1949
mm
しい
vfm
kanye
##90
##2015
##id
jr
##ey
123
rss
##sa
##ro
##am
##no
thu
fri
350
##sh
##ki
103
comments
name
##のて
##pe
##ine
max
1987
8000
uber
##mi
##ton
wordpress
office
1986
1985
##ment
107
bd
win10
##ld
##li
gmail
bb
dior
##rs
##ri
##rd
##ます
up
cad
##®
dr
して
read
##21
をお
##io
##99
url
1984
pvc
paypal
show
policy
##40
##ty
##18
with
##★
##01
txt
102
##ba
dna
from
post
mini
ar
taiwan
john
##ga
privacy
agoda
##13
##ny
word
##24
##22
##by
##ur
##hz
1982
##ang
265
cookie
netscape
108
##ka
##～
##ad
house
share
note
ibm
code
hello
nike
sim
survey
##016
1979
1950
wikia
##32
##017
5g
cbc
##tor
##kg
1983
##rt
##14
campaign
store
2500
os
##ct
##ts
##°
170
api
##ns
365
excel
##な
##ao
##ら
##し
～～
##nd
university
163
には
518
##70
##ya
##il
##25
pierre
ipo
0020
897
##23
hotels
##ian
のお
125
years
6606
##ers
##26
high
##day
time
##ay
bug
##line
##く
##す
##be
xp
talk2yam
yamservice
10000
coco
##dy
sony
##ies
1978
microsoft
david
people
##ha
1960
instagram
intel
その
##ot
iso
1981
##va
115
##mo
##land
xxx
man
co
ltxsw
##ation
baby
220
##pa
##ol
1945
7000
tag
450
##ue
msn
##31
oppo
##ト
##ca
control
##om
st
chrome
##ure
##ん
be
##き
lol
##19
した
##bo
240
lady
##100
##way
##から
4600
##ko
##do
##un
4s
corporation
168
##ni
herme
##28
ｃｐ
978
##up
##06
ui
##ds
ppt
admin
three
します
bbc
re
128
##48
ca
##015
##35
hp
##ee
tpp
##た
##ive
××
root
##cc
##ました
##ble
##ity
adobe
park
114
et
oled
city
##ex
##ler
##ap
china
##book
20000
view
##ice
global
##km
your
hong
##mg
out
##ms
ng
ebay
##29
menu
ubuntu
##cy
rom
##view
open
ktv
do
server
##lo
if
english
##ね
##５
##oo
1600
##02
step1
kong
club
135
july
inc
1976
mr
hi
##net
touch
##ls
##ii
michael
lcd
##05
##33
phone
james
step2
1300
ios9
##box
dc
##２
##ley
samsung
111
280
pokemon
css
##ent
##les
いいえ
##１
s8
atom
play
bmw
##said
sa
etf
ctrl
♥yoyo♥
##55
2025
##2014
##66
adidas
amazon
1958
##ber
##ner
visa
##77
##der
1800
connectivity
##hi
firefox
109
118
hr
so
style
mark
pop
ol
skip
1975
as
##27
##ir
##61
190
mba
##う
##ai
le
##ver
1900
cafe2017
lte
super
113
129
##ron
amd
like
##☆
are
##ster
we
##sk
paul
data
international
##ft
longchamp
ssd
good
##ート
##ti
reply
##my
↓↓↓
apr
star
##ker
source
136
js
112
get
force
photo
##one
126
##2013
##ow
link
bbs
1972
goods
##lin
python
119
##ip
game
##ics
##ません
blue
##●
520
##45
page
itunes
##03
1955
260
1968
gt
gif
618
##ff
##47
group
くたさい
about
bar
ganji
##nce
music
lee
not
1977
1971
1973
##per
an
faq
comment
##って
days
##ock
116
##bs
1974
1969
v1
player
1956
xbox
sql
fm
f1
139
##ah
210
##lv
##mp
##000
melody
1957
##３
550
17life
199
1966
xml
market
##au
##71
999
##04
what
gl
##95
##age
tips
##68
book
##ting
mysql
can
1959
230
##ung
wonderland
watch
10℃
##ction
9000
mar
mobile
1946
1962
article
##db
part
▲top
party
って
1967
1964
1948
##07
##ore
##op
この
dj
##78
##38
010
main
225
1965
##ong
art
320
ad
134
020
##73
117
pm2
japan
228
##08
ts
1963
##ica
der
sm
##36
2019
##wa
ct
##７
##や
##64
1937
homemesh
search
##85
##れは
##tv
##di
macbook
##９
##くたさい
service
##♥
type
った
750
##ier
##si
##75
##います
##ok
best
##ット
goris
lock
##った
cf
3m
big
##ut
ftp
carol
##vi
１０
1961
happy
sd
##ac
122
anti
pe
cnn
iii
1920
138
##ラ
1940
esp
jan
tags
##98
##51
august
vol
##86
154
##™
##fs
##れ
##sion
design
ac
##ム
press
jordan
ppp
that
key
check
##６
##tt
##㎡
1080p
##lt
power
##42
1952
##bc
vivi
##ック
he
133
121
jpg
##rry
201
175
3500
1947
nb
##ted
##rn
しています
1954
usd
##t00
master
##ンク
001
model
##58
al
##09
1953
##34
ram
goo
ても
##ui
127
1930
red
##ary
rpg
item
##pm
##41
270
##za
project
##2012
hot
td
blogabstract
##ger
##62
650
##44
gr2
##します
##ｍ
black
electronic
nfc
year
asus
また
html5
cindy
##hd
m3
132
esc
##od
booking
##53
fed
tvb
##81
##ina
mit
165
##いる
chan
192
distribution
next
になる
peter
bios
steam
cm
1941
にも
pk10
##ix
##65
##91
dec
nasa
##ana
icecat
00z
b1
will
##46
li
se
##ji
##み
##ard
oct
##ain
jp
##ze
##bi
cio
##56
smart
h5
##39
##port
curve
vpn
##nm
##dia
utc
##あり
12345678910
##52
rmvb
chanel
a4
miss
##and
##im
media
who
##63
she
girl
5s
124
vera
##して
class
vivo
king
##フ
##ei
national
ab
1951
5cm
888
145
ipod
ap
1100
5mm
211
ms
2756
##69
mp4
msci
##po
##89
131
mg
index
380
##bit
##out
##zz
##97
##67
158
apec
##８
photoshop
opec
￥799
ては
##96
##tes
##ast
2g
○○
##ール
￥2899
##ling
##よ
##ory
1938
##ical
kitty
content
##43
step3
##cn
win8
155
vc
1400
iphone7
robert
##した
tcl
137
beauty
##87
en
dollars
##ys
##oc
step
pay
yy
a1
##2011
##lly
##ks
##♪
1939
188
download
1944
sep
exe
ph
います
school
gb
center
pr
street
##board
uv
##37
##lan
winrar
##que
##ua
##com
1942
1936
480
gpu
##４
ettoday
fu
tom
##54
##ren
##via
149
##72
b2b
144
##79
##tch
rose
arm
mb
##49
##ial
##nn
nvidia
step4
mvp
00㎡
york
156
##イ
how
cpi
591
2765
gov
kg
joe
##xx
mandy
pa
##ser
copyright
fashion
1935
don
##け
ecu
##ist
##art
erp
wap
have
##lm
talk
##ek
##ning
##if
ch
##ite
video
1943
cs
san
iot
look
##84
##2010
##ku
october
##ux
trump
##hs
##ide
box
141
first
##ins
april
##ight
##83
185
angel
protected
aa
151
162
x1
m2
##fe
##×
##ho
size
143
min
ofo
fun
gomaji
ex
hdmi
food
dns
march
chris
kevin
##のか
##lla
##pp
##ec
ag
ems
6s
720p
##rm
##ham
off
##92
asp
team
fandom
ed
299
▌♥
##ell
info
されています
##82
sina
4066
161
##able
##ctor
330
399
315
dll
rights
ltd
idc
jul
3kg
1927
142
ma
surface
##76
##ク
～～～
304
mall
eps
146
green
##59
map
space
donald
v2
sodu
##light
1931
148
1700
まて
310
reserved
htm
##han
##57
2d
178
mod
##ise
##tions
152
ti
##shi
doc
1933
icp
055
wang
##ram
shopping
aug
##pi
##well
now
wam
b2
からお
##hu
236
1928
##gb
266
f2
##93
153
mix
##ef
##uan
bwl
##plus
##res
core
##ess
tea
5℃
hktvmall
nhk
##ate
list
##ese
301
feb
4m
inn
ての
nov
159
12345
daniel
##ci
pass
##bet
##nk
coffee
202
ssl
airbnb
##ute
fbi
woshipm
skype
ea
cg
sp
##fc
##www
yes
edge
alt
007
##94
fpga
##ght
##gs
iso9001
さい
##ile
##wood
##uo
image
lin
icon
american
##em
1932
set
says
##king
##tive
blogger
##74
なと
256
147
##ox
##zy
##red
##ium
##lf
nokia
claire
##リ
##ding
november
lohas
##500
##tic
##マ
##cs
##ある
##che
##ire
##gy
##ult
db
january
win
##カ
166
road
ptt
##ま
##つ
198
##fa
##mer
anna
pchome
はい
udn
ef
420
##time
##tte
2030
##ア
g20
white
かかります
1929
308
garden
eleven
di
##おります
chen
309b
777
172
young
cosplay
ちてない
4500
bat
##123
##tra
##ては
kindle
npc
steve
etc
##ern
##｜
call
xperia
ces
travel
sk
s7
##ous
1934
##int
みいたたけます
183
edu
file
cho
qr
##car
##our
186
##ant
##ｄ
eric
1914
rends
##jo
##する
mastercard
##2000
kb
##min
290
##ino
vista
##ris
##ud
jack
2400
##set
169
pos
1912
##her
##ou
taipei
しく
205
beta
##ませんか
232
##fi
express
255
body
##ill
aphojoy
user
december
meiki
##ick
tweet
richard
##av
##ᆫ
iphone6
##dd
ちてすか
views
##mark
321
pd
##００
times
##▲
level
##ash
10g
point
5l
##ome
208
koreanmall
##ak
george
q2
206
wma
tcp
##200
スタッフ
full
mlb
##lle
##watch
tm
run
179
911
smith
business
##und
1919
color
##tal
222
171
##less
moon
4399
##rl
update
pcb
shop
499
157
little
なし
end
##mhz
van
dsp
easy
660
##house
##key
history
##ｏ
oh
##001
##hy
##web
oem
let
was
##2009
##gg
review
##wan
182
##°c
203
uc
title
##val
united
233
2021
##ons
doi
trivago
overdope
sbs
##ance
##ち
grand
special
573032185
imf
216
wx17house
##so
##ーム
audi
##he
london
william
##rp
##ake
science
beach
cfa
amp
ps4
880
##800
##link
##hp
crm
ferragamo
bell
make
##eng
195
under
zh
photos
2300
##style
##ント
via
176
da
##gi
company
i7
##ray
thomas
370
ufo
i5
##max
plc
ben
back
research
8g
173
mike
##pc
##ッフ
september
189
##ace
vps
february
167
pantos
wp
lisa
1921
★★
jquery
night
long
offer
##berg
##news
1911
##いて
ray
fks
wto
せます
over
164
340
##all
##rus
1924
##888
##works
blogtitle
loftpermalink
##→
187
martin
test
ling
km
##め
15000
fda
v3
##ja
##ロ
ｗedding
かある
outlet
family
##ea
をこ
##top
story
##ness
salvatore
##lu
204
swift
215
room
している
oracle
##ul
1925
sam
b2c
week
pi
rock
##のは
##ａ
##けと
##ean
##300
##gle
cctv
after
chinese
##back
powered
x2
##tan
1918
##nes
##イン
canon
only
181
##zi
##las
say
##oe
184
##sd
221
##bot
##world
##zo
sky
made
top100
just
1926
pmi
802
234
gap
##vr
177
les
174
▲topoct
ball
vogue
vi
ing
ofweek
cos
##list
##ort
▲topmay
##なら
##lon
として
last
##tc
##of
##bus
##gen
real
eva
##コ
a3
nas
##lie
##ria
##coin
##bt
▲topapr
his
212
cat
nata
vive
health
⋯⋯
drive
sir
▲topmar
du
cup
##カー
##ook
##よう
##sy
alex
msg
tour
しました
3ce
##word
193
ebooks
r8
block
318
##より
2200
nice
pvp
207
months
1905
rewards
##ther
1917
0800
##xi
##チ
##sc
micro
850
gg
blogfp
op
1922
daily
m1
264
true
##bb
ml
##tar
##のお
##ky
anthony
196
253
##yo
state
218
##ara
##aa
##rc
##tz
##ston
より
gear
##eo
##ade
ge
see
1923
##win
##ura
ss
heart
##den
##ita
down
##sm
el
png
2100
610
rakuten
whatsapp
bay
dream
add
##use
680
311
pad
gucci
mpv
##ode
##fo
island
▲topjun
##▼
223
jason
214
chicago
##❤
しの
##hone
io
##れる
##ことか
sogo
be2
##ology
990
cloud
vcd
##con
2～3
##ford
##joy
##kb
##こさいます
##rade
but
##ach
docker
##ful
rfid
ul
##ase
hit
ford
##star
580
##○
１１
a2
sdk
reading
edited
##are
cmos
##mc
238
siri
light
##ella
##ため
bloomberg
##read
pizza
##ison
jimmy
##vm
college
node
journal
ba
18k
##play
245
##cer
２０
magic
##yu
191
jump
288
tt
##ings
asr
##lia
3200
step5
network
##cd
mc
いします
1234
pixstyleme
273
##600
2800
money
★★★★★
1280
１２
430
bl
みの
act
##tus
tokyo
##rial
##life
emba
##ae
saas
tcs
##rk
##wang
summer
##sp
ko
##ving
390
premium
##その
netflix
##ヒ
uk
mt
##lton
right
frank
two
209
える
##ple
##cal
021
##んな
##sen
##ville
hold
nexus
dd
##ius
てお
##mah
##なく
tila
zero
820
ce
##tin
resort
##ws
charles
old
p10
5d
report
##360
##ru
##には
bus
vans
lt
##est
pv
##レ
links
rebecca
##ツ
##dm
azure
##365
きな
limited
bit
4gb
##mon
1910
moto
##eam
213
1913
var
eos
なとの
226
blogspot
された
699
e3
dos
dm
fc
##ments
##ik
##kw
boy
##bin
##ata
960
er
##せ
219
##vin
##tu
##ula
194
##∥
station
##ろ
##ature
835
files
zara
hdr
top10
nature
950
magazine
s6
marriott
##シ
avira
case
##っと
tab
##ran
tony
##home
oculus
im
##ral
jean
saint
cry
307
rosie
##force
##ini
ice
##bert
のある
##nder
##mber
pet
2600
##◆
plurk
▲topdec
##sis
00kg
▲topnov
720
##ence
tim
##ω
##nc
##ても
##name
log
ips
great
ikea
malaysia
unix
##イト
3600
##ncy
##nie
12000
akb48
##ye
##oid
404
##chi
##いた
oa
xuehai
##1000
##orm
##rf
275
さん
##ware
##リー
980
ho
##pro
text
##era
560
bob
227
##ub
##2008
8891
scp
avi
##zen
2022
mi
wu
museum
qvod
apache
lake
jcb
▲topaug
★★★
ni
##hr
hill
302
ne
weibo
490
ruby
##ーシ
##ヶ
##row
4d
▲topjul
iv
##ish
github
306
mate
312
##スト
##lot
##ane
andrew
のハイト
##tina
t1
rf
ed2k
##vel
##900
way
final
りの
ns
5a
705
197
##メ
sweet
bytes
##ene
▲topjan
231
##cker
##2007
##px
100g
topapp
229
helpapp
rs
low
14k
g4g
care
630
ldquo
あり
##fork
leave
rm
edition
##gan
##zon
##qq
▲topsep
##google
##ism
gold
224
explorer
##zer
toyota
category
select
visual
##labels
restaurant
##md
posts
s1
##ico
もっと
angelababy
123456
217
sports
s3
mbc
1915
してくたさい
shell
x86
candy
##new
kbs
face
xl
470
##here
4a
swissinfo
v8
▲topfeb
dram
##ual
##vice
3a
##wer
sport
q1
ios10
public
int
card
##ｃ
ep
au
rt
##れた
1080
bill
##mll
kim
３０
460
wan
##uk
##ミ
x3
298
0t
scott
##ming
239
e5
##3d
h7n9
worldcat
brown
##あります
##vo
##led
##580
##ax
249
410
##ert
paris
##～6
polo
925
##lr
599
##ナ
capital
##hing
bank
cv
1g
##chat
##ｓ
##たい
adc
##ule
2m
##ｅ
digital
hotmail
268
##pad
870
bbq
quot
##ring
before
wali
##まて
mcu
2k
2b
という
costco
316
north
333
switch
##city
##ｐ
philips
##mann
management
panasonic
##cl
##vd
##ping
##rge
alice
##lk
##ましょう
css3
##ney
vision
alpha
##ular
##400
##tter
lz
にお
##ありません
mode
gre
1916
pci
##tm
237
1～2
##yan
##そ
について
##let
##キ
work
war
coach
ah
mary
##ᅵ
huang
##pt
a8
pt
follow
##berry
1895
##ew
a5
ghost
##ション
##wn
##og
south
##code
girls
##rid
action
villa
git
r11
table
games
##cket
error
##anonymoussaid
##ag
here
##ame
##gc
qa
##■
##lis
gmp
##gin
vmalife
##cher
yu
wedding
##tis
demo
dragon
530
soho
social
bye
##rant
river
orz
acer
325
##↑
##ース
##ats
261
del
##ven
440
ups
##ように
##ター
305
value
macd
yougou
##dn
661
##ano
ll
##urt
##rent
continue
script
##wen
##ect
paper
263
319
shift
##chel
##フト
##cat
258
x5
fox
243
##さん
car
aaa
##blog
loading
##yn
##tp
kuso
799
si
sns
イカせるテンマ
ヒンクテンマ3
rmb
vdc
forest
central
prime
help
ultra
##rmb
##ような
241
square
688
##しい
のないフロクに
##field
##reen
##ors
##ju
c1
start
510
##air
##map
cdn
##wo
cba
stephen
m8
100km
##get
opera
##base
##ood
vsa
com™
##aw
##ail
251
なのて
count
t2
##ᅡ
##een
2700
hop
##gp
vsc
tree
##eg
##ose
816
285
##ories
##shop
alphago
v4
1909
simon
##ᆼ
fluke62max
zip
スホンサー
##sta
louis
cr
bas
##～10
bc
##yer
hadoop
##ube
##wi
1906
0755
hola
##low
place
centre
5v
d3
##fer
252
##750
##media
281
540
0l
exchange
262
series
##ハー
##san
eb
##bank
##ｋ
q3
##nge
##mail
take
##lp
259
1888
client
east
cache
event
vincent
##ールを
きを
##nse
sui
855
adchoice
##и
##stry
##なたの
246
##zone
ga
apps
sea
##ab
248
cisco
##タ
##rner
kymco
##care
dha
##pu
##yi
minkoff
royal
p1
への
annie
269
collection
kpi
playstation
257
になります
866
bh
##bar
queen
505
radio
1904
andy
armani
##xy
manager
iherb
##ery
##share
spring
raid
johnson
1908
##ob
volvo
hall
##ball
v6
our
taylor
##hk
bi
242
##cp
kate
bo
water
technology
##rie
サイトは
277
##ona
##sl
hpv
303
gtx
hip
rdquo
jayz
stone
##lex
##rum
namespace
##やり
620
##ale
##atic
des
##erson
##ql
##ves
##type
enter
##この
##てきます
d2
##168
##mix
##bian
との
a9
jj
ky
##lc
access
movie
##hc
リストに
tower
##ration
##mit
ます
##nch
ua
tel
prefix
##o2
1907
##point
1901
ott
～10
##http
##ury
baidu
##ink
member
##logy
bigbang
nownews
##js
##shot
##tb
##こと
247
eba
##tics
##lus
ける
v5
spark
##ama
there
##ions
god
##lls
##down
hiv
##ress
burberry
day2
##kv
◆◆
jeff
related
film
edit
joseph
283
##ark
cx
32gb
order
g9
30000
##ans
##tty
s5
##bee
かあります
thread
xr
buy
sh
005
land
spotify
mx
##ari
276
##verse
×email
sf
why
##ことて
244
7headlines
nego
sunny
dom
exo
401
666
positioning
fit
rgb
##tton
278
kiss
alexa
adam
lp
みリストを
##ｇ
mp
##ties
##llow
amy
##du
np
002
institute
271
##rth
##lar
2345
590
##des
sidebar
１５
imax
site
##cky
##kit
##ime
##009
season
323
##fun
##ンター
##ひ
gogoro
a7
pu
lily
fire
twd600
##ッセーシを
いて
##vis
30ml
##cture
##をお
information
##オ
close
friday
##くれる
yi
nick
てすか
##tta
##tel
6500
##lock
cbd
economy
254
かお
267
tinker
double
375
8gb
voice
##app
oops
channel
today
985
##right
raw
xyz
##＋
jim
edm
##cent
7500
supreme
814
ds
##its
##asia
dropbox
##てすか
##tti
books
272
100ml
##tle
##ller
##ken
##more
##boy
sex
309
##dom
t3
##ider
##なります
##unch
1903
810
feel
5500
##かった
##put
により
s2
mo
##gh
men
ka
amoled
div
##tr
##n1
port
howard
##tags
ken
dnf
##nus
adsense
##а
ide
##へ
buff
thunder
##town
##ique
has
##body
auto
pin
##erry
tee
てした
295
number
##the
##013
object
psp
cool
udnbkk
16gb
##mic
miui
##tro
most
r2
##alk
##nity
1880
±0
##いました
428
s4
law
version
##oa
n1
sgs
docomo
##tf
##ack
henry
fc2
##ded
##sco
##014
##rite
286
0mm
linkedin
##ada
##now
wii
##ndy
ucbug
##◎
sputniknews
legalminer
##ika
##xp
2gb
##bu
q10
oo
b6
come
##rman
cheese
ming
maker
##gm
nikon
##fig
ppi
kelly
##ります
jchere
てきます
ted
md
003
fgo
tech
##tto
dan
soc
##gl
##len
hair
earth
640
521
img
##pper
##a1
##てきる
##ロク
acca
##ition
##ference
suite
##ig
outlook
##mond
##cation
398
##pr
279
101vip
358
##999
282
64gb
3800
345
airport
##over
284
##おり
jones
##ith
lab
##su
##いるのて
co2
town
piece
##llo
no1
vmware
24h
##qi
focus
reader
##admin
##ora
tb
false
##log
1898
know
lan
838
##ces
f4
##ume
motel
stop
##oper
na
flickr
netcomponents
##af
##─
pose
williams
local
##ound
##cg
##site
##iko
いお
274
5m
gsm
con
##ath
1902
friends
##hip
cell
317
##rey
780
cream
##cks
012
##dp
facebooktwitterpinterestgoogle
sso
324
shtml
song
swiss
##mw
##キンク
lumia
xdd
string
tiffany
522
marc
られた
insee
russell
sc
dell
##ations
ｏｋ
camera
289
##vs
##flow
##late
classic
287
##nter
stay
g1
mtv
512
##ever
##lab
##nger
qe
sata
ryan
d1
50ml
cms
##cing
su
292
3300
editor
296
##nap
security
sunday
association
##ens
##700
##bra
acg
##かり
sofascore
とは
mkv
##ign
jonathan
gary
build
labels
##oto
tesla
moba
qi
gohappy
general
ajax
1024
##かる
サイト
society
##test
##urs
wps
fedora
##ich
mozilla
328
##480
##dr
usa
urn
##lina
##ｒ
grace
##die
##try
##ader
1250
##なり
elle
570
##chen
##ᆯ
price
##ten
uhz
##ough
eq
##hen
states
push
session
balance
wow
506
##cus
##py
when
##ward
##ep
34e
wong
library
prada
##サイト
##cle
running
##ree
313
ck
date
q4
##ctive
##ool
##＞
mk
##ira
##163
388
die
secret
rq
dota
buffet
は１ヶ
e6
##ez
pan
368
ha
##card
##cha
2a
##さ
alan
day3
eye
f3
##end
france
keep
adi
rna
tvbs
##ala
solo
nova
##え
##tail
##ょう
support
##ries
##なる
##ved
base
copy
iis
fps
##ways
hero
hgih
profile
fish
mu
ssh
entertainment
chang
##wd
click
cake
##ond
pre
##tom
kic
pixel
##ov
##fl
product
6a
##pd
dear
##gate
es
yumi
audio
##²
##sky
echo
bin
where
##ture
329
##ape
find
sap
isis
##なと
nand
##101
##load
##ream
band
a6
525
never
##post
festival
50cm
##we
555
guide
314
zenfone
##ike
335
gd
forum
jessica
strong
alexander
##ould
software
allen
##ious
program
360°
else
lohasthree
##gar
することかてきます
please
##れます
rc
##ggle
##ric
bim
50000
##own
eclipse
355
brian
3ds
##side
061
361
##other
##ける
##tech
##ator
485
engine
##ged
##ｔ
plaza
##fit
cia
ngo
westbrook
shi
tbs
50mm
##みませんか
sci
291
reuters
##ily
contextlink
##hn
af
##cil
bridge
very
##cel
1890
cambridge
##ize
15g
##aid
##data
790
frm
##head
award
butler
##sun
meta
##mar
america
ps3
puma
pmid
##すか
lc
670
kitchen
##lic
オーフン5
きなしソフトサーヒス
そして
day1
future
★★★★
##text
##page
##rris
pm1
##ket
fans
##っています
1001
christian
bot
kids
trackback
##hai
c3
display
##hl
n2
1896
idea
さんも
##sent
airmail
##ug
##men
pwm
けます
028
##lution
369
852
awards
schemas
354
asics
wikipedia
font
##tional
##vy
c2
293
##れている
##dget
##ein
っている
contact
pepper
スキル
339
##～5
294
##uel
##ument
730
##hang
みてす
q5
##sue
rain
##ndi
wei
swatch
##cept
わせ
331
popular
##ste
##tag
p2
501
trc
1899
##west
##live
justin
honda
ping
messenger
##rap
v9
543
##とは
unity
appqq
はすへて
025
leo
##tone
##テ
##ass
uniqlo
##010
502
her
jane
memory
moneydj
##tical
human
12306
していると
##m2
coc
miacare
##mn
tmt
##core
vim
kk
##may
fan
target
use
too
338
435
2050
867
737
fast
##2c
services
##ope
omega
energy
##わ
pinkoi
1a
##なから
##rain
jackson
##ement
##シャンルの
374
366
そんな
p9
rd
##ᆨ
1111
##tier
##vic
zone
##│
385
690
dl
isofix
cpa
m4
322
kimi
めて
davis
##lay
lulu
##uck
050
weeks
qs
##hop
920
##ｎ
ae
##ear
～5
eia
405
##fly
korea
jpeg
boost
##ship
small
##リア
1860
eur
297
425
valley
##iel
simple
##ude
rn
k2
##ena
されます
non
patrick
しているから
##ナー
feed
5757
30g
process
well
qqmei
##thing
they
aws
lu
pink
##ters
##kin
または
board
##vertisement
wine
##ien
unicode
##dge
r1
359
##tant
いを
##twitter
##3c
cool1
される
##れて
##ｌ
isp
##012
standard
45㎡2
402
##150
matt
##fu
326
##iner
googlemsn
pixnetfacebookyahoo
##ラン
x7
886
##uce
メーカー
sao
##ev
##きました
##file
9678
403
xddd
shirt
6l
##rio
##hat
3mm
givenchy
ya
bang
##lio
monday
crystal
ロクイン
##abc
336
head
890
ubuntuforumwikilinuxpastechat
##vc
##～20
##rity
cnc
7866
ipv6
null
1897
##ost
yang
imsean
tiger
##fet
##ンス
352
##＝
dji
327
ji
maria
##come
##んて
foundation
3100
##beth
##なった
1m
601
active
##aft
##don
3p
sr
349
emma
##khz
living
415
353
1889
341
709
457
sas
x6
##face
pptv
x4
##mate
han
sophie
##jing
337
fifa
##mand
other
sale
inwedding
##gn
てきちゃいます
##mmy
##pmlast
bad
nana
nbc
してみてくたさいね
なとはお
##wu
##かあります
##あ
note7
single
##340
せからこ
してくたさい♪この
しにはとんとんワークケートを
するとあなたにもっとマッチした
ならワークケートへ
もみつかっちゃうかも
ワークケートの
##bel
window
##dio
##ht
union
age
382
１４
##ivity
##ｙ
コメント
domain
neo
##isa
##lter
5k
f5
steven
##cts
powerpoint
tft
self
g2
ft
##テル
zol
##act
mwc
381
343
もう
nbapop
408
てある
eds
ace
##room
previous
author
tomtom
il
##ets
hu
financial
☆☆☆
っています
bp
5t
chi
1gb
##hg
fairmont
cross
008
gay
h2
function
##けて
356
also
1b
625
##ータ
##raph
1894
3～5
##ils
i3
334
avenue
##host
による
##bon
##tsu
message
navigation
50g
fintech
h6
##ことを
8cm
##ject
##vas
##firm
credit
##wf
xxxx
form
##nor
##space
huawei
plan
json
sbl
##dc
machine
921
392
wish
##120
##sol
windows7
edward
##ために
development
washington
##nsis
lo
818
##sio
##ym
##bor
planet
##～8
##wt
ieee
gpa
##めて
camp
ann
gm
##tw
##oka
connect
##rss
##work
##atus
wall
chicken
soul
2mm
##times
fa
##ather
##cord
009
##eep
hitachi
gui
harry
##pan
e1
disney
##press
##ーション
wind
386
frigidaire
##tl
liu
hsu
332
basic
von
ev
いた
てきる
スホンサーサイト
learning
##ull
expedia
archives
change
##wei
santa
cut
ins
6gb
turbo
brand
cf1
508
004
return
747
##rip
h1
##nis
##をこ
128gb
##にお
3t
application
しており
emc
rx
##oon
384
quick
412
15058
wilson
wing
chapter
##bug
beyond
##cms
##dar
##oh
zoom
e2
trip
sb
##nba
rcep
342
aspx
ci
080
gc
gnu
める
##count
advanced
dance
dv
##url
##ging
367
8591
am09
shadow
battle
346
##ｉ
##cia
##という
emily
##のてす
##tation
host
ff
techorz
sars
##mini
##mporary
##ering
nc
4200
798
##next
cma
##mbps
##gas
##ift
##dot
##ィ
455
##～17
amana
##りの
426
##ros
ir
00㎡1
##eet
##ible
##↓
710
ˋ▽ˊ
##aka
dcs
iq
##ｖ
l1
##lor
maggie
##011
##iu
588
##～1
830
##gt
1tb
articles
create
##burg
##iki
database
fantasy
##rex
##cam
dlc
dean
##you
hard
path
gaming
victoria
maps
cb
##lee
##itor
overchicstoretvhome
systems
##xt
416
p3
sarah
760
##nan
407
486
x9
install
second
626
##ann
##ph
##rcle
##nic
860
##nar
ec
##とう
768
metro
chocolate
##rian
～4
##table
##しています
skin
##sn
395
mountain
##0mm
inparadise
6m
7x24
ib
4800
##jia
eeworld
creative
g5
g3
357
parker
ecfa
village
からの
18000
sylvia
サーヒス
hbl
##ques
##onsored
##x2
##きます
##v4
##tein
ie6
383
##stack
389
ver
##ads
##baby
sound
bbe
##110
##lone
##uid
ads
022
gundam
351
thinkpad
006
scrum
match
##ave
mems
##470
##oy
##なりました
##talk
glass
lamigo
span
##eme
job
##a5
jay
wade
kde
498
##lace
ocean
tvg
##covery
##r3
##ners
##rea
junior
think
##aine
cover
##ision
##sia
↓↓
##bow
msi
413
458
406
##love
711
801
soft
z2
##pl
456
1840
mobil
mind
##uy
427
nginx
##oi
めた
##rr
6221
##mple
##sson
##ーシてす
371
##nts
91tv
comhd
crv3000
##uard
1868
397
deep
lost
field
gallery
##bia
rate
spf
redis
traction
930
icloud
011
なら
fe
jose
372
##tory
into
sohu
fx
899
379
kicstart2
##hia
すく
##～3
##sit
ra
２４
##walk
##xure
500g
##pact
pacific
xa
natural
carlo
##250
##walker
1850
##can
cto
gigi
516
##サー
pen
##hoo
ob
matlab
##ｂ
##yy
13913459
##iti
mango
##bbs
sense
c5
oxford
##ニア
walker
jennifer
##ola
course
##bre
701
##pus
##rder
lucky
075
##ぁ
ivy
なお
##nia
sotheby
side
##ugh
joy
##orage
##ush
##bat
##dt
364
r9
##2d
##gio
511
country
wear
##lax
##～7
##moon
393
seven
study
411
348
lonzo
8k
##ェ
evolution
##イフ
##kk
gs
kd
##レス
arduino
344
b12
##lux
arpg
##rdon
cook
##x5
dark
five
##als
##ida
とても
sign
362
##ちの
something
20mm
##nda
387
##posted
fresh
tf
1870
422
cam
##mine
##skip
##form
##ssion
education
394
##tee
dyson
stage
##jie
want
##night
epson
pack
あります
##ppy
テリヘル
##█
wd
##eh
##rence
left
##lvin
golden
mhz
discovery
##trix
##n2
loft
##uch
##dra
##sse
speed
～1
1mdb
sorry
welcome
##urn
wave
gaga
##lmer
teddy
##160
トラックハック
せよ
611
##f2016
378
rp
##sha
rar
##あなたに
##きた
840
holiday
##ュー
373
074
##vg
##nos
##rail
gartner
gi
6p
##dium
kit
488
b3
eco
##ろう
20g
sean
##stone
autocad
nu
##np
f16
write
029
m5
##ias
images
atp
##dk
fsm
504
1350
ve
52kb
##xxx
##のに
##cake
414
unit
lim
ru
1v
##ification
published
angela
16g
analytics
ak
##ｑ
##nel
gmt
##icon
again
##₂
##bby
ios11
445
かこさいます
waze
いてす
##ハ
9985
##ust
##ティー
framework
##007
iptv
delete
52sykb
cl
wwdc
027
30cm
##fw
##ての
1389
##xon
brandt
##ses
##dragon
tc
vetements
anne
monte
modern
official
##へて
##ere
##nne
##oud
もちろん
５０
etnews
##a2
##graphy
421
863
##ちゃん
444
##rtex
##てお
l2
##gma
mount
ccd
たと
archive
morning
tan
ddos
e7
##ホ
day4
##ウ
gis
453
its
495
factory
bruce
pg
##ito
ってくたさい
guest
cdma
##lling
536
n3
しかし
3～4
mega
eyes
ro
１３
women
dac
church
##jun
singapore
##facebook
6991
starbucks
##tos
##stin
##shine
zen
##mu
tina
20℃
1893
##たけて
503
465
request
##gence
qt
##っ
1886
347
363
q7
##zzi
diary
##tore
409
##ead
468
cst
##osa
canada
agent
va
##jiang
##ちは
##ーク
##lam
sg
##nix
##sday
##よって
g6
##master
bing
##zl
charlie
１６
8mm
nb40
##ーン
thai
##ルフ
ln284ct
##itz
##2f
bonnie
##food
##lent
originals
##stro
##lts
418
∟∣
##bscribe
children
ntd
yesstyle
##かも
hmv
##tment
d5
2cm
arts
sms
##pn
##я
##いい
topios9
539
lifestyle
virtual
##ague
xz
##deo
muji
024
unt
##nnis
##ᅩ
faq1
1884
396
##ette
fly
64㎡
はしめまして
441
curry
##pop
のこ
release
##←
##◆◆
##cast
073
ありな
500ml
##ews
5c
##stle
ios7
##ima
787
dog
lenovo
##r4
roger
013
cbs
vornado
100m
417
##desk
##クok
##ald
1867
9595
2900
##van
oil
##ｘ
some
break
common
##jy
##lines
g7
twice
419
ella
nano
belle
にこ
##mes
##self
##note
jb
##ことかてきます
benz
##との
##ova
451
save
##wing
##ますのて
kai
りは
##hua
##rect
rainer
##unge
448
##0m
adsl
##かな
guestname
##uma
##kins
##zu
tokichoi
##price
county
##med
##mus
rmk
391
address
vm
えて
openload
##group
##hin
##iginal
amg
urban
##oz
jobs
emi
##public
beautiful
##sch
album
##dden
##bell
jerry
works
hostel
miller
##drive
##rmin
##１０
376
boot
828
##370
##fx
##cm～
1885
##nome
##ctionary
##oman
##lish
##cr
##hm
433
##how
432
francis
xi
c919
b5
evernote
##uc
vga
##3000
coupe
##urg
##cca
##uality
019
6g
れる
multi
##また
##ett
em
hey
##ani
##tax
##rma
inside
than
740
leonnhurt
##jin
ict
れた
bird
notes
200mm
くの
##dical
##lli
result
442
iu
ee
438
smap
gopro
##last
yin
pure
998
32g
けた
5kg
##dan
##rame
mama
##oot
bean
marketing
##hur
2l
bella
sync
xuite
##ground
515
discuz
##getrelax
##ince
##bay
##5s
cj
##イス
gmat
apt
##pass
jing
##rix
c4
rich
##とても
niusnews
##ello
bag
770
##eting
##mobile
１８
culture
015
##のてすか
377
1020
area
##ience
616
details
gp
universal
silver
dit
はお
private
ddd
u11
kanshu
##ified
fung
##nny
dx
##520
tai
475
023
##fr
##lean
3s
##pin
429
##rin
25000
ly
rick
##bility
usb3
banner
##baru
##gion
metal
dt
vdf
1871
karl
qualcomm
bear
1010
oldid
ian
jo
##tors
population
##ernel
1882
mmorpg
##mv
##bike
603
##©
ww
friend
##ager
exhibition
##del
##pods
fpx
structure
##free
##tings
kl
##rley
##copyright
##mma
california
3400
orange
yoga
4l
canmake
honey
##anda
##コメント
595
nikkie
##ルハイト
dhl
publishing
##mall
##gnet
20cm
513
##クセス
##┅
e88
970
##dog
fishbase
##£
##¤
##¥
##§
##±
##³
##µ
##¹
##º
##¼
##ß
##æ
##÷
##ø
##đ
##ŋ
##ɔ
##ə
##ɡ
##ʰ
##ˇ
##ˈ
##ˊ
##ˋ
##ˍ
##ː
##˙
##˚
##ˢ
##α
##β
##γ
##δ
##ε
##η
##θ
##ι
##κ
##λ
##μ
##ν
##ο
##π
##ρ
##ς
##σ
##τ
##υ
##φ
##χ
##ψ
##б
##в
##г
##д
##е
##ж
##з
##к
##л
##м
##н
##о
##п
##р
##с
##т
##у
##ф
##х
##ц
##ч
##ш
##ы
##ь
##і
##ا
##ب
##ة
##ت
##د
##ر
##س
##ع
##ل
##م
##ن
##ه
##و
##ي
##۩
##ก
##ง
##น
##ม
##ย
##ร
##อ
##า
##เ
##๑
##ღ
##ᄀ
##ᄁ
##ᄂ
##ᄃ
##ᄅ
##ᄆ
##ᄇ
##ᄈ
##ᄉ
##ᄋ
##ᄌ
##ᄎ
##ᄏ
##ᄐ
##ᄑ
##ᄒ
##ᅢ
##ᅣ
##ᅥ
##ᅦ
##ᅧ
##ᅨ
##ᅪ
##ᅬ
##ᅭ
##ᅮ
##ᅯ
##ᅲ
##ᅳ
##ᅴ
##ᆷ
##ᆸ
##ᆺ
##ᆻ
##ᗜ
##ᵃ
##ᵉ
##ᵍ
##ᵏ
##ᵐ
##ᵒ
##ᵘ
##
##⁄
##ⁱ
##⁺
##ⁿ
##₁
##₃
##₄
##€
##№
##ⅰ
##ⅱ
##ⅲ
##ⅳ
##ⅴ
##↔
##↗
##↘
##⇒
##∀
##−
##∕
##∙
##√
##∞
##∟
##∠
##∣
##∩
##∮
##∶
##∼
##∽
##≈
##≒
##≡
##≤
##≥
##≦
##≧
##≪
##≫
##⊙
##⋅
##⋈
##⋯
##⌒
##①
##②
##③
##④
##⑤
##⑥
##⑦
##⑧
##⑨
##⑩
##⑴
##⑵
##⑶
##⑷
##⑸
##⒈
##⒉
##⒊
##⒋
##ⓒ
##ⓔ
##ⓘ
##━
##┃
##┆
##┊
##┌
##└
##├
##┣
##═
##║
##╚
##╞
##╠
##╭
##╮
##╯
##╰
##╱
##╳
##▂
##▃
##▅
##▇
##▉
##▋
##▌
##▍
##▎
##□
##▪
##▫
##▬
##△
##▶
##►
##▽
##◇
##◕
##◠
##◢
##◤
##☀
##☕
##☞
##☺
##☼
##♀
##♂
##♠
##♡
##♣
##♦
##♫
##♬
##✈
##✔
##✕
##✖
##✦
##✨
##✪
##✰
##✿
##❀
##➜
##➤
##⦿
##々
##〇
##〓
##ぃ
##ぇ
##ぬ
##ふ
##ほ
##む
##ゃ
##ゅ
##ゆ
##ょ
##゜
##ゝ
##ァ
##ゥ
##エ
##ォ
##ケ
##サ
##セ
##ソ
##ッ
##ニ
##ヌ
##ネ
##ノ
##ヘ
##モ
##ャ
##ヤ
##ュ
##ユ
##ョ
##ヨ
##ワ
##ヲ
##ヽ
##ㄅ
##ㄆ
##ㄇ
##ㄉ
##ㄋ
##ㄌ
##ㄍ
##ㄎ
##ㄏ
##ㄒ
##ㄚ
##ㄛ
##ㄞ
##ㄟ
##ㄢ
##ㄤ
##ㄥ
##ㄧ
##ㄨ
##ㆍ
##㈦
##㊣
##＄
##＜
##＾
##｀
##ｆ
##ｈ
##ｊ
##ｕ
##ｗ
##ｚ
##ｯ
##ｰ
##ｲ
##ｸ
##ｼ
##ｽ
##ﾄ
##ﾉ
##ﾌ
##ﾗ
##ﾙ
##ﾝ
##ﾞ
##ﾟ
##￣
##￥
##👍
##🔥
##😂
##😎
一个
中国
我们
他们
自己
没有
国家
可以
发展
工作
这个
什么
主要
问题
进行
地方
已经
这样
全国
经济
这些
不是
公司
人民
社会
知道
这种
起来
地区
如果
开始
技术
重要
美国
成为
因为
通过
研究
文化
企业
北京
历史
世界
其中
现在
天安门
不能
一些
时间
生产
情况
代表
决定
湖北
关系
领导
生活
时候
一种
可能
出来
学生
以及
石首
一般
同时
认为
由于
所以
不同
这里
学院
两个
作为
会议
但是
部分
活动
需要
怎么
管理
方面
市场
组织
工业
建设
形成
其他
出现
许多
日本
之间
一定
具有
城市
人民代表大会
以上
政治
人们
委员会
发现
记者
国际
规定
机关
武汉
虽然
根据
法律
影响
发生
包括
使用
中心
教育
要求
政府
因此
人口
建立
参加
产品
武汉市
而且
一样
面积
各种
提出
我国
作用
皇帝
必须
行政
编辑
职业
制度
你们
以后
说道
世纪
为了
应该
之一
之后
主席
系统
有关
组成
民族
基本
增长
自然
大学
如何
政体
各级
人员
计划
不会
产生
时期
最后
一次
表示
机构
当时
大家
特别
改革
长江
那么
这么
东西
能力
湖北省
革命
一直
基础
还有
得到
进入
运动
目前
对于
过程
方法
举行
群众
第一
单位
如此
孩子
所有
资源
过去
不过
条件
学校
提高
工程
环境
提供
方式
百科
报告
或者
下来
军事
部门
分别
十分
上海
完成
一切
那些
最大
然后
农业
经过
专业
准备
增加
获得
旅游
一声
觉得
一起
理论
今天
非常
中央
比较
表现
价值
国务院
科技
完全
亿元
有些
存在
达到
内容
实行
思想
事情
实现
甚至
人民政府
任务
选举
形式
原来
有人
突然
不断
咱们
变化
心中
直接
战争
可是
不知
政策
不要
资本
继续
年代
期间
位于
任何
权力
那个
执行
先生
解决
建筑
能够
自治区
称为
结构
一点
成立
英国
社会主义
统一
先进
结果
投资
后来
一下
水平
保护
主任
关于
负责
制定
艺术
利用
于是
学习
合作
科学
看到
项目
不敢
襄阳
几个
那里
公里
服务
精神
人大
全省
当然
个人
超过
重点
很多
原因
及其
公民
锛
希望
新闻
设计
相关
国内
分布
最高
部队
它们
集团
信息
重大
采用
回来
范围
引起
实际
其实
不仅
取得
丰富
农民
整个
为主
了解
价格
甚么
地位
紝
这时
劳动
按照
控制
目标
基地
农村
传统
受到
全部
法国
比赛
军队
土地
规模
荆州
眼睛
左右
选择
批准
身上
专家
分析
统治
加强
不到
铁路
百度
每年
告诉
支持
交通
明白
处理
本级
作战
时代
皇上
实施
只要
成功
办法
随着
之中
进一步
心里
终于
大量
人物
共同
全国人民代表大会
下去
多少
来说
严重
词条
接受
收入
以来
城邦
声音
意见
过来
保持
今日
一条
发言人
另外
坚持
工人
汽车
而是
敌人
商品
说话
改变
先后
力量
事业
看见
开发
战略
标准
是否
中华人民共和国
出去
今年
报道
程度
国民党
平均
消息
还是
安全
独立
注意
机会
韦小宝
父亲
此外
这次
经验
采取
喜欢
根本
领域
具体
联系
几乎
干部
印度
如今
大会
不可
兄弟
德国
阶段
感到
为什么
无法
宪法
似乎
原则
真正
法规
斗争
人类
目的
造成
一位
反对
相同
儿子
以前
著名
众人
建议
迅速
全面
正是
明显
就是
欧洲
作品
首先
集中
正式
朋友
第二
召开
材料
帮助
飞机
委员
行动
保证
现象
特点
现代
实际上
资料
毛泽东
同志
行为
结束
直辖市
介绍
只见
胜利
认识
人数
姑娘
积极
家庭
之前
更加
回答
那样
武器
应用
市长
来到
设立
产业
公路
人才
意义
台湾
容易
长期
一句
大道
扩大
官员
调整
考虑
联合
并且
自由
仍然
拥有
民主
专门
附近
一天
师父
结合
清楚
说明
稳定
古代
三个
此时
物质
电话
网络
利益
然而
很大
不少
中学
开放
调查
人家
重新
广泛
分为
知识
别人
综合
出口
动物
速度
总理
脸上
用于
设备
女人
股东
作出
展开
措施
通常
电子
方向
导弹
小时
平民
行业
货币
特色
完善
地理
功能
香港
巨大
发表
性质
母亲
质量
命令
和平
监督
一年
身体
面前
武功
位置
体系
越来越
逐渐
指出
安排
权利
训练
考试
指挥
却是
指导
发布
除了
从而
感觉
努力
机场
业务
植物
同样
状态
人民代表大会常务委员会
二人
银行
书记
治疗
一阵
所谓
这位
反应
语言
忽然
当年
以下
找到
青年
宣布
离开
恢复
困难
事件
哪里
实在
见到
装备
某些
其它
问道
万元
检察院
平原
经营
多年
往往
苏联
广场
解释
因素
队伍
教授
医院
怎样
男人
双方
减少
考生
当地
多种
经常
各地
生物
平方千米
南京
海军
外交部
真是
心想
外国
财产
全市
本来
两种
有效
尤其
一边
用户
方案
进攻
常委会
机械
参与
充分
从事
尽管
特殊
又称
一块
手段
生命
銆
便是
体育
居民
天安门广场
生长
立即
内部
简单
一片
全国人大常委会
数量
有时
开展
文学
进来
决议
显示
属于
也许
中国共产党
气候
一只
来自
还要
相信
确定
投入
一面
普通
看着
公元
去年
文章
手中
心理
女儿
封建
图片
创造
总统
促进
大型
带来
教师
竟然
较大
看来
若干
每个
反映
每天
食品
坐在
文明
相当
变成
资金
放在
毫米
中间
夫人
相对
大陆
职权
西方
不再
第一次
导致
对方
应当
人民法院
讨论
即使
金融
爱国
证明
制造
构成
老师
担任
区域
一座
殑
院长
计算机
家里
错误
曾经
保障
天安门城楼
创作
强调
连续
运输
看看
分钟
主张
商业
高速
有限公司
真的
只能
天下
贸易
不得
境内
体制
因而
例如
财政
肯定
成绩
音乐
一件
建成
回去
难道
接着
正确
现代化
石首市
以为
处于
大臣
高度
复杂
社区
身子
回到
媒体
俄罗斯
地面
分子
意思
总是
东北
销售
弟子
未来
重视
等等
压力
良好
到底
各个
最终
战斗
航空
之下
一级
里面
数学
全国人民代表大会常务委员会
毕业
竞争
宗教
比例
适应
健康
她们
出版
故事
责任
面对
将军
粮食
政权
各国
鐨
类型
发挥
听说
遗址
南北
立刻
亚洲
正常
女子
培养
就业
大小
秘书长
明确
优势
好像
一场
至少
人士
晚上
确实
特征
贡献
实验
高级
想到
关键
一眼
周围
难以
样子
本报
帝国主义
自治州
一张
相互
是不是
部长
身边
广州
三年
之外
蒙古
发出
只有
比如
理解
刚才
不足
南部
程序
加上
西北
父母
一中
适当
留下
李自成
研制
省级
发达
全国人大
东部
品种
愿意
道路
类似
空军
行使
细胞
空间
形势
西部
小说
妇女
股份
维护
公布
名称
只好
检查
化学
矛盾
任期
儿童
本身
规划
状况
实践
一家
成长
需求
多次
分配
一致
西南
贵族
既然
一时
高兴
美元
全体
统计
事务
体现
名字
不了
产量
始终
最近
长安
英雄
从此
同意
一步
海拔
掌握
普遍
宜昌
招生
攻击
天然
不错
亲自
相应
一旦
观点
实力
中部
听到
再次
更是
突出
条例
全球
人大代表
公元前
经历
进步
上述
绝对
抗日
修改
优秀
至于
河流
发动
审议
计算
数据
关注
女性
职工
资本主义
必要
朝廷
表明
不肯
委员长
主持
常常
遇到
在于
消费
欢迎
想起
日子
条约
协议
公开
行政区划
限制
现实
武昌
强烈
早已
的话
衣服
太阳
河南
广大
正在
胖子
态度
很快
交流
不好
万吨
前面
森林
显然
有所
闯王
一部分
撤销
千米
破坏
双手
江南
阅读
上面
工资
纷纷
北部
种类
无论
深入
推进
石油
进去
地上
效果
团体
年轻
倘若
核心
电影
纺织
形象
果然
意识
常务
垸
显得
规律
平等
山东
加工
只是
洪山区
两侧
列为
解放
加入
大部分
新华社
逐步
担心
表面
下降
电视
工具
第三
网站
制作
设施
天津
成果
各项
预算
寡头
紧张
手机
令狐冲
一系列
势力
记载
外交
搜狐
众多
一把
年底
文物
宣传
日常
检察长
一名
高中
令人
严格
不管
领导人
满足
推动
下午
地下
昨天
随后
认真
大声
生于
明代
成员
创新
遭到
不久
持续
培训
数字
游客
试验
阶级
似的
发射
文字
天门
来看
城楼
公园
空中
软件
习惯
事实
地球
浠
一半
刚刚
手里
武装
不但
任免
张居正
不想
意大利
距离
永远
年间
互相
人大常委会
妻子
一段
妈妈
眼前
元年
对象
四个
听见
变得
彻底
毕竟
快速
朝鲜
失败
临时
一批
利润
多数
那时
路线
其余
划分
唯一
坦克
尚书
概念
来源
充满
降低
四大
慢慢
老人
符合
发布会
小姐
哲学
轻轻
北平
老板
这件
同学
校名
山地
美军
那种
率领
办公室
录取
矿产
当下
别的
咨询
小龙
几天
伸手
五年
各自
自身
判断
哥哥
失去
危机
后面
配合
大事
增强
金属
卫生
成本
文件
加以
丈夫
必然
财富
首都
此后
购买
东南
公共
医生
素质
打击
改善
生态
广东
人生
一带
改为
方针
红色
承认
英语
象征
少数
设置
爆发
飞行
具备
学者
否则
对外
性命
故道
随即
疾病
不禁
大明
百姓
缺乏
院校
功夫
成分
伟大
投票
闭会
完整
机制
起义
打开
国民经济
几年
屽
村委会
考察
皇城
答应
相比
演出
最早
观念
营养
运用
行者
职务
面临
本人
第一个
吸收
流通
现场
协调
抓住
海洋
对手
承担
交易
原料
邓小平
自治县
是从
针对
外面
争取
发育
桃花
事物
风险
奴隶
少年
召集
叫做
推出
教学
鏄
作者
化工
论坛
出席
贷款
东方
再也
理想
游行
究竟
下面
危险
年均
平衡
上来
清代
大规模
非洲
寻找
和尚
不必
兴趣
温度
转移
团结
国民
省长
患者
机器
中共中央
病人
宝玉
威胁
而言
两次
奇怪
相反
厘米
估计
情绪
密切
出发
招聘
大学生
一道
传播
合理
民间
主人
点头
大约
长江大桥
依据
放心
江夏区
国外
本行政区域
北方
厉害
改造
明朝
固定
太监
停止
移动
强大
一支
秘密
前提
避免
休息
高校
街道
推荐
夏天
伊朗
产值
并非
模式
演习
年龄
性能
感情
审判
维持
费用
志愿
已有
太庙
尚未
客户
极大
适合
王朝
校长
一页
更新
一口
这儿
首次
宫廷
整体
自治
四川
区别
资产阶级
及时
地方性
门外
风格
左手
江陵
巴黎
早期
员工
上升
版本
成熟
几句
南方
涉及
空气
两年
旁边
国防
药物
操作
近年来
负责人
方便
全身
门口
候选人
有点
不在
局面
银子
突破
由此
建造
各类
士兵
一份
康熙
两位
转化
议会
槸
开发区
心情
回头
帝国
十年
县级
独特
湖南
公斤
依然
微笑
标志
棉花
战士
十堰
大多数
规范
平台
成就
升级
新型
交换
拒绝
证券
大人
合同
直播
日期
战场
高考
统治者
崇祯
喝道
股权
渐渐
明清
军警
一番
废除
走向
从来
平时
反而
多个
举办
算是
简称
装置
公主
此次
沿海
痛苦
重庆
加速
主动
不行
转变
损失
市民
共产党
杩
平方公里
之上
发行
接近
劳动力
重建
备案
医疗
一生
使得
湖泊
国有
加快
审查
评价
生存
规则
记录
澶
工厂
脸色
累计
大大
祖国
阳光
右手
时刻
著作
客人
以外
给予
医学
原始
学科
典型
仪式
电脑
上去
医药
满意
到处
做法
立场
进口
害怕
补充
运行
北京市
地址
支付
资格
优良
日军
韩国
国家级
博士
传说
少数民族
居住
采访
食物
目光
动力
占领
另一方面
防止
太太
土壤
异常
依照
作家
民族乡
行情
恐怕
某种
人马
接触
总结
有着
动作
种种
幸福
背景
江苏
原种
死亡
理由
部署
集体
大概
同一
至今
毕业生
年纪
人体
武当山
年度
国王
观察
所说
吸引
做出
手术
案件
道理
初步
全年
解放军
最佳
小学
相似
总人口
大桥
极为
仅仅
可惜
总额
男子
签订
博物馆
此刻
不由得
很少
原理
点亮
高原
引用
明天
大门
关心
邀请
等于
转身
授予
陆军
两者
水产
一大
角度
允许
大多
早就
资产
上级
赶快
黄河
道德
剩下
眼见
改进
说法
春秋
电力
亿美元
值得
海上
职能
真实
改称
吩咐
学术
品牌
科研
交给
低声
季节
分类
一会儿
系列
上市
回家
日益
色彩
房子
河北
微微
设有
放弃
之所以
一会
冠军
居然
此事
万亩
选民
坚决
研究所
远远
打算
同年
登时
依靠
皇后
协会
这场
适用
谈判
消费者
云南
队员
中共
太子
通知
当即
个别
仿佛
命运
仙桃
小组
基金
永乐
到达
颜色
不得不
头发
投降
三峡
第四
陕西
分享
十堰市
表演
上午
访问
黄金
而已
地图
种植
建国
动手
荆州市
吃饭
一股
华北
有利于
走出
保存
罗马
周恩来
消失
网页
抗战
再说
追求
大哥
露出
卫星
动态
熟悉
取消
人均
今后
流行
取出
合法
竴
趋势
地势
本次
用来
美丽
过渡
第二次
屾
深刻
向前
繁殖
风味
浙江
奶奶
地质
每次
这般
小子
犯罪
午门
老婆
表达
等待
通信
家长
仔细
最初
遗产
老百姓
八年
头上
鱼类
要是
听取
一部
风景
鍙
将领
联合国
衙门
批评
侵略
人民币
结婚
正义
社稷
所在地
后者
门前
前进
提名
决策
爹爹
初期
官兵
顺利
一方面
最为
袁承志
公众
首页
高速公路
演员
包含
礼部
秩序
自动
根据地
鍦
称号
雷达
广告
含量
编制
客观
股票
更为
贯彻
秘书
合并
只得
一路
当选
前来
游戏
注重
两岸
议案
激烈
太后
一类
港口
主意
多么
文艺
模型
据说
埃及
西班牙
银鱼
潜艇
主管
药品
反复
或是
航线
大军
荣誉
观众
无人
一项
刺激
未必
前后
黄冈
自然保护区
申请
摇头
最新
宋江
宜昌市
大师
含有
笔架
本科
主体
绿色
哪些
得名
忍不住
一套
防御
气温
商人
不用
有限
中原
流域
红军
大清
热情
自我
将来
人工
蒋介石
山区
味道
想着
各部
杭州
制成
推广
深圳
途径
片刻
立法
所在
屼
公安
好吃
笉
诗人
次数
省内
积累
享受
科学家
流动
战役
四周
授权
没想到
一招
一根
其次
成都
一齐
预计
治理
享有
地处
课程
暂时
皮肤
经理
一层
马克思主义
发明
白色
战术
县长
事实上
执政
江湖
对付
君主
出于
姐姐
走进
万公顷
内阁
出身
党中央
冲突
排列
战国
骑兵
夫妇
军人
袁世凯
少女
显著
太平洋
全世界
投诉
报纸
之际
婚姻
校园
人人
落后
基本上
物理
黄石
就算
长沙
商量
路上
只怕
不许
激动
大街
山西
读者
政协
古老
企图
污染
能量
工艺
身份
声明
做到
协定
大典
纪念
这话
总面积
现有
养殖
主题
海外
新疆
简介
伊拉克
扩展
准确
汉白玉
到来
盆地
地震
正好
降水量
天气
四年
联盟
探索
一度
富有
不够
函数
主力
即将
图案
胡秉宸
万岁
面试
好好
中华民族
学会
保险
学位
指示
王国
信心
储量
要素
眼泪
俄国
调节
情形
感受
气氛
呼吸
半天
李鸿章
修建
挑战
供应
钢铁
建有
组合
气体
爱情
自主
佸
丝毫
赶紧
抵触
提醒
地带
紧急
透露
参考
西藏
江西
佛教
洞庭湖
进程
坐下
测量
延伸
文化大革命
发动机
热带
十五
禁止
继承
有力
领袖
第二天
西安
循环
资本家
兴奋
武昌区
沟通
事项
近代
初中
表决
友好
可见
两只
希腊
总数
做好
足够
男性
常见
形态
想法
后期
大叫
无不
讲话
连接
收费
提到
差不多
截止
症状
吴三桂
记得
检察
哊
东京
高新技术
颁布
几次
详细
前往
返回
司法
大力
开国
优质
战斗机
怀疑
酒店
与其
性格
影片
大批
不如
手指
快乐
司令
提升
总量
码头
总体
构造
最高人民法院
场所
网上
朱元璋
看法
一回
房间
不让
说完
毫无
黑暗
顺治
职位
丘陵
自从
随时
之类
临床
之内
正门
政党
任职
留在
指标
更好
董事会
悠久
市区
县市
爸爸
总产值
辐射
兵力
杂志
确立
光绪
总督
中华
保留
测试
相继
效率
私人
局部
小心
变革
沉重
景点
谈话
木材
乾隆
所属
中央人民政府
当前
最低
予以
合适
当真
此人
镇压
灵魂
扩张
分裂
选手
两天
鈥
主义
生气
江泽民
将士
结论
出售
密度
忘记
轨道
曹操
一对
无数
李高成
个体
姑姑
决心
高手
草原
出入
信号
受伤
无产阶级
品德
教主
一遍
伸出
老爷
共和国
上涨
像是
迎接
尊重
安装
腐败
引进
不论
把握
鼓励
随州
人群
最高人民检察院
搜索
专题
差别
外资
千万
有没有
依法
地点
简直
国家机关
命名
始建
何况
慈禧
有机
较为
被迫
读书
各省
行政区
领土
倾向
英文
有权
战胜
频率
病毒
布局
黑色
传来
生成
言语
输出
一处
军阀
荷兰
一下子
黄石市
怎么样
洛阳
想象
二年
在内
特产
就要
陛下
周期
自行
科学技术
鍚
军官
岗位
实验室
城乡
办事
沉默
退出
法院
宇宙
指数
当中
诏书
鍒
分离
单独
马上
原子
消除
剩余价值
工作人员
如同
照片
意味着
接待
鄂西
一顿
竟是
组成部分
胸口
民政
牺牲
选出
婆婆
流通股
文库
身后
布置
有利
一身
嘉靖
描述
他人
与此同时
混合
顿时
原有
感染
障碍
桌上
神色
一日
签署
基督教
收拾
大厅
加大
占有
故意
下岗
院子
唐代
亚热带
合成
脑袋
城里
代替
五一
历代
般的
两条
常用
正阳门
不见
询问
示威
目录
排名
伦敦
长老
同事
哪儿
住房
球队
分成
半个
反抗
反动
旅行社
能源
转过
批判
昨日
得以
思维
冷笑
好处
那天
落实
为何
思考
攻关
夫妻
遭受
教训
适宜
大夫
展示
武林
门户
三分
投资者
千步
愤怒
意外
差异
深处
起身
城镇
当局
沙漠
指着
提前
郧阳
紧紧
青岛
评论
见面
消灭
节目
赋予
效益
懂得
水中
只不过
物资
正当
内地
宫女
尽量
福建
转向
戏剧
一门
土司
孙中山
策略
中期
体内
以便
反正
彼此
急忙
普查
夺取
江汉平原
引导
创办
尸体
麋鹿
照顾
局长
暗暗
模样
城门
抗日战争
口味
陆续
如下
无疑
荆门
妹妹
林区
请求
不变
兴建
主持人
说出
日前
城内
办理
汉子
争夺
上下
名叫
耳朵
施工
释放
水面
得知
同比
的确
发起
高等
人力
乡村
鍏
开辟
明星
口径
通道
大都
主权
战机
群岛
凡是
车程
防空
老子
刑部
鎴
效应
既有
黄色
神农架
宫殿
义和团
联赛
没什么
侦察
一方
神秘
走上
京城
前者
节日
导演
鏉
服从
官军
官吏
孝感
国土
一代
整顿
低于
以北
蛋白质
示范区
经典
考研
考核
又名
当初
脚步
棋盘
阿哥
光荣
陈家洛
南海
季度
连忙
蔬菜
黑鱼
也好
繁荣
内心
下令
印象
缓缓
历来
覆盖
爷爷
鱼肚
会上
上年
即便
不免
权威
进士
长剑
庄严
聪明
全都
加拿大
中华人民共和国中央军事委员会
特定
围绕
本质
小小的
义务
麻烦
逻辑
平面
床上
论述
随便
航海
一个个
一颗
北京大学
澳大利亚
线路
表情
代码
剅
精彩
桌子
诞生
南京市
收购
课题
足球
河道
以色列
意志
种子
旅游区
概况
一群
不停
万美元
瞧瞧
回族
近日
正要
生产力
仅次于
想要
当日
舞蹈
不下
中国队
汉族
声响
干涉
岩石
辛亥革命
入侵
职司
双眼
总部
沿革
并未
不住
进展
派出
热闹
为首
部落
翻译
巩固
创建
预防
所长
形状
祭祀
改名
便宜
预测
等级
各位
眼光
相连
取代
海藻
评为
汉口
宣告
东汉
混乱
列入
嘴里
极其
名牌
支援
庆典
老太太
太空
基层
爆炸
神经
王琦瑶
更名
深深
大致
业绩
天地
信任
冲击
基因
玻璃
部位
场合
遵守
平方米
舞台
人选
满脸
打破
出生
轻松
参观
万平方米
悬挂
委托
研发
师傅
局势
任命
赶到
步兵
确保
市委
带有
神情
热烈
航运
三级
南路
学说
光华
血液
依次
精品
俱乐部
城墙
图册
损害
鲜血
李莫愁
石头
平日
集合
缺少
剑法
水力
以往
可怕
兴起
全长
侍卫
理性
负担
共和
那儿
直升机
平静
特性
代理
知识分子
频繁
手臂
州长
话题
人间
不良
每日
会见
手上
日月
配套
生产总值
号称
街头
不该
拿出
一口气
这时候
维生素
整理
边缘
深度
城中
屋里
大气
为止
姓名
眼下
年轻人
宋代
原本
观看
漂亮
通往
却说
推行
广播
画家
对待
携带
那位
公告
家族
本地
帝王
法制
负责制
一头
一副
明日
元素
法庭
说不定
山脉
视为
澳门
侵略者
聚集
车辆
支配
信仰
上海市
炮弹
相当于
可怜
陷入
前辈
面向
大米
渔业
经费
无比
清朝
总经理
省直
带领
沿岸
关闭
抬头
回国
请愿
情报
摆脱
国内外
藏族
承诺
外贸
手法
事儿
两名
送到
宫中
绘画
贫困
心头
装甲
利害
不满
纤维
亲兵
世上
湖南省
街上
伊斯兰教
何必
服装
火箭
论文
射击
江夏
哪个
协助
党员
那边
媳妇
房屋
器官
角色
东湖
抵抗
哈哈
安徽
二级
省委
增加值
恩施
不幸
通用
改建
五个
水系
阿拉伯
干净
工匠
十八年
当作
天天
渠道
当今
遭遇
我军
视频
古墓
接过
达成
天空
什么样
或许
岃
才能
市场经济
管辖
名城
中外
扩建
能否
子女
马朝旭
采购
个个
职责
兵刃
首领
议事
舰队
感动
鱼苗
光芒
老者
食用
封锁
可用
疼痛
买卖
尽快
选拔
舆论
武装力量
重复
人为
南京长江大桥
大学士
回过
欣赏
律师
号召
行省
名单
定义
收到
财务
一辈子
景观
不利
十五年
莫斯科
宣言
研究生
边界
经济特区
比重
政治部
互联网
人民公社
总裁
群体
阵地
内战
内外
强度
一个月
登记
脖子
启动
免费
十三
点点头
司令部
美术
孝感市
立时
复习
奠定
地形
公子
黄冈市
技艺
树立
对抗
递增
自觉
增多
匾额
伤害
演变
杀人
指挥部
屋子
皇家
民众
船舶
代表团
生理
乃是
查看
鼻子
力度
出土
其间
危害
列车
截至
上游
基于
呈现
领先
过于
时机
球员
军民
情景
工部
测定
物体
野生
后果
高于
事故
健全
兵团
胡同
封闭
变动
治安
决赛
犯人
背上
一双
差距
紫禁城
纽约
微软
肿瘤
答案
低头
建筑群
中文
月份
火山
蒙古族
刘备
权益
桥梁
正中
鍑
提议
弟兄
初级
官方
添加
全党
风光
信用
家中
抑制
施行
第二次世界大战
饮食
地主
开创
大国
大将
胪
边境
几种
等候
晶体
高大
境界
罢了
肚子
打倒
自成
五代
瀹
辖区
名额
旁人
睡觉
商议
这方面
肌肉
层次
此处
广西
各人
推翻
半晌
模拟
毫不
支柱
收益
周边
玉米
不顾
奴才
传递
生意
次日
波斯
精华
口号
出门
占据
年初
南非
张无忌
诊断
华表
公社
名片
感谢
标语
善于
脱离
必定
景区
万平方公里
老人家
何处
团长
文献
化石
师兄
输入
会谈
指定
沿着
眼里
无限
引发
顾问
开封
各界
草案
丧失
生效
敏感
穷人
证书
新鲜
抬起
运动员
锻炼
体验
队长
垄断
八戒
称之为
履行
工商
城外
直径
小麦
奋斗
西北部
道教
化合物
单纯
送给
维修
千克
议论
正面
警察
宏观
名义
参数
统帅
一一
区长
格局
钱谦益
教练
一手
万历
合格
娱乐
古城
用力
前景
垜
天子
土家族
一夜
鏃
依赖
艰难
少林
行政区域
变为
海底
上前
大地
直至
动员
佳肴
派遣
缁
大体
党委
适才
预期
大队
不易
世界杯
难得
招呼
小型
江汉
南湖
丫头
不难
手续
不算
严肃
定位
流传
当代
转换
东南亚
清政府
提起
非法
总司令
湁
公平
淡水鱼
苏州
袭击
看出
总产量
打死
愿望
数目
院士
花岗岩
小人
父子
跪下
黄宗羲
火炮
两边
产卵
网友
十四
六年
固然
勫
装饰
西汉
两代
中等
汉人
海峡
外界
产物
活跃
巴西
打听
水泥
思路
环节
交往
会长
弟弟
画像
怎地
王爷
被捕
持有
八国联军
海岸
半年
说起
阻止
多半
十大
力学
头顶
一行
历时
湪
仍旧
岛屿
口中
煤炭
当天
精细
南阳
身旁
披露
情感
击败
心思
庆祝
汉语
大幅
证实
伙伴
重量
单行
同期
待遇
生涯
鄂州
諲
例子
包围
不怕
以南
咸宁
报名
温暖
赛季
激素
联邦
婴儿
模范
房地产
收集
清晰
制约
受命
场面
事先
殖民地
客运
壮丽
规矩
棺材
紧密
检验
去世
海水
半点
配置
小孩
杀死
报考
北京城
瑞士
沔
现行
庞大
智慧
冬季
人口数
北大
以致
远处
发掘
建制
贡献者
下游
王公
和谐
哈哈大笑
黄州
记忆
收回
繖
匆匆
波兰
鱼种
概览
农产品
白雪
可能性
讲究
安陆
防守
民国
诉讼
兵器
工程师
确认
创立
感激
往来
团子
无奈
援助
本事
脚下
河口
暗中
保卫
一律
征服
注入
深受
技巧
汇报
墙上
诗歌
品质
风景区
主席团
不料
脾气
干扰
长城
登上
广阔
北纬
大为
内力
誉为
短期
高峰
溶液
丐帮
旅客
鄂州市
燃烧
中华门
协商
荆门市
仙桃市
木工
凭借
图书馆
核武器
分支
屈家岭
垂直
对面
冰川
垱
碰到
观测
一刀
菩萨
家伙
压迫
描写
怀里
可靠
节度使
咸宁市
齐声
经济学
满洲
现存
百年
必备
长度
命题
增大
相等
大胆
华山
越是
湖北省人民政府
西晋
汉江
山上
勇气
匈奴
综合性
天鹅洲
极端
亿立方米
用作
周年
物品
越南
个性
不安
写作
可谓
各族
制品
伤口
甘肃
创业
鍐
时辰
悄悄
祖先
一体
作业
文武
作风
大众
据悉
大殿
发言
海域
防治
手工业
鲜明
每当
孤立
简历
半岛
雕刻
石英
要说
设想
大西洋
欧盟
付出
总之
从未
城区
难度
零部件
高温
省会
精美
涌现
登陆
缓慢
气象
违反
欧阳锋
眼中
天主教
本月
鎵
水果
完美
姊妹
第二个
椅子
纠正
今晚
打败
鲁迅
拆除
减轻
水利
得罪
起源
重伤
粒子
前去
冶金
支撑
造型
提问
县城
全国政协
山水
穴道
这项
满族
流量
友谊
大使
长大
不及
金殿
以至
地貌
茶叶
三天
浑身
枢纽
精力
知名
国务委员
依旧
万一
想想
夏季
登基
泰国
人民解放军
纳入
侍郎
接到
本市
终身
沈阳
液体
特有
夜晚
一向
额外
证据
勉强
生产资料
屋顶
眼看
试图
强化
故里
货物
长安街
次年
不妨
方言
转头
用人
纲领
航班
离子
航母
积极性
周伯通
斯巴达
美好
轻易
通讯
会计
克服
黑龙江
火车
目的地
有趣
手掌
题材
元代
地域
这份
有益
浏览
安慰
进城
出手
一本
开口
农作物
设在
拿到
一杯
认定
恐怖
力气
增添
岛上
促使
全境
一幅
学历
否定
夜里
承受
粬
政治家
白天
笑容
未能
司机
得意
回顾
组建
这天
武士
莲子
明永乐
中午
女士
国会
计划生育
视察
借口
面貌
清醒
何以
以此
首辅
出征
消化
灵活
户部
师哥
幅度
利率
每人
汉奸
人心
皇宫
不能不
已然
教材
尚无
旧址
平安
先前
喝酒
耕地
主导
展览
穿过
驻地
水质
勇敢
利息
正文
高潮
英勇
对话
侵入
学派
分泌
分散
就此
注册
也就是说
解放区
龙头
过分
尴尬
仪器
菱花
至此
三层
本国
深化
内蒙古
论证
腹部
支出
营销
几何
检测
同胞
三种
春天
评估
手下
昆明
制订
沿用
笑脸
客气
别说
口气
中纺
连连
齐全
实用
三月
定律
济南
开采
义军
犹如
北宋
水运
可不
声道
生死
心灵
欢喜
答复
位居
兑换
二十
揭露
增设
綘
中方
回忆
新加坡
黄金周
罕见
立法权
故乡
起到
洪承畴
机动
江北
致使
三次
开通
阴谋
调动
处处
实质
叙述
活着
咖啡
刘宗敏
燕京
疯狂
夜间
一线
肩头
发放
零售
恰好
少将
十二
两座
无论如何
颁发
逮捕
美洲
珍贵
迫使
联想
曲折
融合
女孩
第五
体积
笅
期限
用以
定期
伤心
代表大会
电信
从不
外汇
技能
亲王
前期
民事
日后
洪水
逝世
公务员
绝不
残酷
林彪
名贵
支流
延安
服役
动静
新生
中毒
船长
营造
神话
脑子
村里
琉璃瓦
清兵
几位
气息
假定
人身
用途
八月
瞬间
本领
晓得
昔日
进而
民用
历任
里程
湖广
透明
舰艇
看作
浓厚
延续
书写
任何人
矿物
晚期
探讨
成人
一流
填报
顾客
教堂
最小
卖国贼
西域
县委
分解
心态
大业
几十年
公正
偶尔
名胜古迹
向来
对外开放
旗帜
国民政府
征集
看上去
概括
植被
船上
寻求
外部
发达国家
喜爱
特种
方才
鸡蛋
五月
风波
分化
文书
傛
膨胀
莫非
温和
终究
师妹
宗旨
理会
嶅
华夏
凤凰
民族自治
不觉
信息化
缩小
占地
从业
围墙
硕士
孩儿
某个
下级
变更
全军
军区
辅助
沉吟
航天
奥地利
瑞典
一小
说来
辛勤
西周
处长
西南部
政务
高等教育
福临
两类
补偿
金银
认得
假如
含义
监察
细节
人事
主场
李大钊
心脏
洪湖
平常
争论
上班
就让
激光
税收
完毕
威力
米粉
联合会
泪水
逃走
古建筑
得出
苹果
面子
死刑
议员
兵部
便于
人造
星期
阐述
念头
挣扎
中叶
分流
突击
中国人民解放军
几步
湿润
鐪
全民
情节
期望
前线
扬州
多家
反击
盛产
绝大多数
玉石
航行
三藏
好生
罢工
剥削
昆虫
阐明
惊人
丞相
篘
元大都
章程
杰出
一派
黄陂
出台
拍摄
自信
资助
古怪
党内
空前
停留
灯光
行事
精确
少量
大笑
水深
排除
固体
偶然
消耗
近来
从前
闻名
两院制
苗族
竞争力
极了
乃至
帮主
司令员
旋转
每月
获取
随意
笔架山
国防部
转让
明明
法定
打电话
随州市
求职
杜甫
十八
时分
头脑
故宫
开会
优点
墨西哥
文理学院
乡长
高级中学
寻思
八个
巡抚
脂肪
一封
勬
台上
细菌
集团公司
东南部
对立
胡子
罢免
早晨
须弥座
锅巴
高出
通航
不远
天门市
见于
清军
金额
花园
格外
考验
干脆
不宜
尊严
地中海
审计长
通车
春节
应付
药材
六个
夺得
园林
代价
干燥
池河
有助于
干线
近期
老头
太原
堝
偏偏
区分
河床
不准
失业
尖椒
助理
作物
普及
呼吁
珍稀
暴露
名为
拉开
穆斯林
后勤
摄影
侵犯
造反
戏曲
原名
安定
自然资源
古迹
道人
乡镇
激情
辞职
电视台
身材
大片
板块
发作
有意
潜力
必需
处罚
图库
答道
南宋
东经
商城
古人
长官
干什么
桂林
回归
雅典
跟随
真理
长方形
心理学
大别山
所知
生动
社会学
畅销
放松
不然
内河
顺序
血管
二者
天堂
无力
推开
武力
储备
前途
身穿
谈到
免疫
河南省
反革命
产业化
见长
财物
柏林
沉积
氧化
严厉
出色
切实
市政府
射线
鏂
道士
流入
天上
苏维埃
劳动者
再度
吏部
有名
彩绘
提倡
从小
亲戚
分明
阶层
通行
身分
战后
损伤
王府
设法
地租
字形
矿山
专制
战线
饭店
胳膊
运作
可不是
嘴唇
探明
收藏
寻常
古典
佩服
奥运会
地下水
法学
中轴线
整整
掏出
此前
东侧
着手
主峰
坚定
燃料
严峻
水流
行走
现状
炸弹
大战
相见
联络
出任
弯曲
巴基斯坦
群雄
签字
欧元
有时候
瀑布
政变
怀中
一分
咳嗽
符号
华中
辉煌
水晶
军马
遗传
失望
博览会
丁能通
稳步
印刷
阴阳
纪录
中国政府
泊位
移民
限度
新月
恐惧
官家
西边
延长
几下
日报
赶来
已知
浓郁
充足
替代
二十年
外地
擅长
老营
鉴定
热点
本书
好汉
江山
当场
遵循
纪律
青少年
光辉
谴责
跟踪
御道
探测
抗议
题目
面粉
干旱
辛苦
气势
宋献策
高层
汇率
景象
光明
期待
好事
战斗力
前列
天然气
向往
军方
家乡
修缮
各校
精心
光学
赢得
总队
四月
总会
教育部
多久
超越
粉碎
新兴
理工学院
营业
国师
即位
违法
在校
手腕
半数
竞赛
村民
失误
尚有
均匀
磕头
受理
隐藏
省份
湴
摇摇头
早上
一间
同盟
隧道
随之
如是
政委
盛行
利润率
栽培
叶子
契丹
特权
征求
灌溉
道具
浮雕
理念
优先
记住
审计
省区
屁股
旅游业
贵州
下属
高山
世人
操纵
主编
首席
以免
预付
起点
火力
安静
常规
例外
致力
高低
一剑
盈盈
肠子
惊讶
官府
纵然
神龙
肩膀
人民大会堂
会员
我会
风暴
忽视
激发
指点
回事
缔结
冬天
梦想
开拓
湿地
住宅
型号
愉快
三面
鐗
后代
猛地
鍔
狮子
股市
使命
特务
考古
纠纷
师范学院
董事
犹豫
起义军
举动
工人阶级
少林寺
难免
牙齿
电台
供奉
尝试
执法
密集
外语
体重
余种
掀起
大海
图书
水库
一丝
报仇
百万
九年
子口
小弟
中山公园
骑马
厂商
自杀
合乎
十六
孔明
牛肉
转入
机遇
崇拜
判决
低下
物理学
鍗
外长
县级市
描绘
土耳其
途中
荆江
门下
来不及
一体化
开来
两面
顺着
名词
培育
新增
俗称
汉阳
专线
苏维埃政府
如果说
供给
对比
两地
窗口
球迷
节奏
六部
黄依依
军舰
师长
变量
档案
专利
响应
点滴
运河
夊
加重
从中
认证
国徽
上帝
先锋
徒弟
对此
军中
奖励
横贯
一笔
傗
内功
商务
优惠
四下
分工
垃圾
打仗
总算
山坡
避开
步伐
工程学院
赞成
级别
小声
黄土
危急
多尔衮
全力
一辆
指责
出版社
法子
不成
办事处
应有
中东
军师
消费品
公式
在外
武松
磁场
收获
分数
遗憾
禀报
建筑业
水陆
灭亡
寿命
分开
专政
音乐堂
死去
警告
史料
军士
搞笑
过度
白嘉轩
一篇
窗外
召见
李逵
第一次世界大战
下载
漫长
笔者
方程
一刻
源于
两届
难题
疲劳
习俗
固定资产
考证
想不到
魦
建筑物
坚强
墨镜
激起
惩罚
监管
国旗
倾斜
乐器
舒服
隐隐
算了
国防委员会
升高
深远
过年
间接
刊物
岳不群
亏损
船只
一再
西欧
主观
传入
高效
成效
艰苦
带动
神仙
沙市
出名
深厚
追赶
底下
结成
致富
上司
早年
俘虏
部类
刺史
种族
脚本
当事人
不仅仅
亿吨
发展中国家
一团
浪费
抱住
回报
先行
约束
不同于
所用
直到
旅行
谨慎
试点
自带
艾滋病
打扮
洪七公
太康
廷杖
西侧
河谷
超出
自有
三位
办学
地铁
这部
部属
解除
不等
娘子
弹性
子弹
日历
石破天
北约
背后
称赞
渴望
年份
演奏
高呼
金钱
大汉
弹药
混凝土
热量
洪山
下达
起伏
射程
配备
首脑
我家
精神文明
创建者
这会儿
中山
火车站
内陆
十一
乘机
县政府
来回
削弱
书法
座谈会
娃娃
休闲
上马
好看
常委
太平
礼物
军用
嗗
名人
法令
识别
福利
研究员
李太后
缓解
杀害
响起
引入
飞行员
隶属
五分
日志
陆地
策划
水稻
经济效益
工业化
始于
小小
华中科技大学
革新
求知
必读
中药
代表作
大局
争议
辽东
嘴巴
总书记
亲切
一脚
变迁
骨干
团队
孔子
五间
学士
多名
叔叔
几分
鲜花
活力
通称
容量
冷静
先是
申报
全会
元朝
绝大部分
那末
反射
内涵
甘泉
太和殿
饲养
陕西省
是非
中华人民共和国宪法
信奉
清洁
除非
长江流域
妇人
下辖
祖宗
一碗
后世
一八
比分
师弟
模糊
蓝色
七年
地层
辽宁
转动
相距
尽可能
水下
图像
保健
不便
预定
随手
礼仪
同情
殿试
云集
不小
天体
独自
牌坊
落下
在场
四方
青春
接连
奇特
水域
谢谢
称呼
蛋白
人民日报
以东
笑话
对应
电器
汽水
原先
接收
等到
组织法
科长
欢乐
袁崇焕
处置
在线
谁知
下列
楼上
份额
剧烈
生怕
两句
门洞
宽阔
首位
新华网
生平
山河
歌曲
招收
着重
豆腐
掌管
中亚
直隶
这块
万年
褰
沼泽
南岳
鎶
此间
华侨
集会
装有
万家
优美
鄂东
东风
毛泽东思想
温带
激励
震惊
山谷
山顶
以内
文华
鳙
退休
优越
铁矿
拼命
宝贝
户口
赔偿
虽说
嶆
不曾
白领
取决
一枚
通衢
董事长
地步
死者
推送
两家
整齐
猛烈
造林
不已
国民革命军
第一批
遗迹
着急
无线电
整合
拍卖
诸葛亮
睡眠
自称
强迫
上层
曹汝霖
各家
教会
家属
物价
老公
兼备
三国
上空
兘
庭长
老大
行政公署
统一战线
自由人
编辑者
防务
影子
市辖区
陶器
私信
沔阳
看过
莲蓬
自治机关
定为
刑事
运气
麻城
不吃
一点儿
首相
睡着
往前
爆米花
叫作
清华
改装
同步
皇太后
书籍
拦截
主流
珍品
淘汰
现已
进化
打着
共产国际
绿化
喇嘛
红旗
对不起
相差
即可
神圣
注视
进军
大展宏图
镇长
狭窄
国情
印度洋
紧闭
比利时
省辖市
送来
制止
菜系
二路
子孙
伤亡
电流
有害
好象
大爷
状元
壁画
人文
监利
闃
环保
悲剧
竭力
搜狗
时尚
诸多
表态
浓度
豪华
下马
官职
便利
学院路
东交民巷
匕首
走来
台阶
只管
宝贵
千年
极少
加紧
传媒
常设
运营
熷
油料
大伙儿
幻想
鄂南
潵
哪怕
清理
封建王朝
月亮
恩施市
向东
二月
晚年
同一个
后人
债务
调控
鮠
很小
大连
自行车
专科
自幼
官僚
中医
大于
大吃一惊
重重
四处
中小学
体会
帽子
林业
暗器
潜江市
芯片
免得
这家
一同
康有为
九曲回肠
瓙
眼神
五四运动
十月
火炬计划
一贯
病情
审理
奖金
王室
朱翊钧
温柔
练习
现金
示范县
生日
置于
树木
叛乱
灾难
撰写
共产主义
得分
诗文
常有
留学
小孩子
烦恼
中年
千公顷
假设
制药
万多亩
美食
监视
李鸿忠
艺术家
刘少奇
腰间
纵身
宛如
频道
菲律宾
白沙洲
南环路
丹麦
气味
起飞
原种场
进球
厨房
实习
体力
恰恰
解开
西夏
桥头堡
递给
自古
密码
着实
大赛
中路
欎
家务
科举
中游
武艺
料到
跟着
放到
伴随
康复
中央军事委员会
小事
困境
火光
在家
类别
反帝
此举
易于
强盗
揭示
鲜美
交涉
躬身
大炮
专用
鎯
亲人
人格
据此
张献忠
氏族
菜肴
开支
担负
实事求是
中南部
笑声
接下来
拱手
取胜
手脚
学府
恶劣
纵横
步枪
清晨
头部
海南
诧异
心上
顺便
理智
淡水
鱼雷
融资
数学家
光泽
审判员
改编
管道
暴力
单一
加热
中日
一旁
所得
合金
兼任
惨案
勋章
机枪
月光
放开
僧人
圆形
挥手
监测
天府
殖民
度假
红墙
攻占
学员
一趟
印尼
翻身
新建
招数
嘱咐
民兵
乐园
移植
波动
剥夺
变形
机体
天色
叹息
放入
潮流
心目
室内
自此
维吾尔族
魅力
口袋
战友
塑料
两层
姿态
汉中
变换
灰色
笂
破产
购物
壮族
美女
投产
恒星
围攻
振动
沙滩
缺陷
未免
一周
钢琴
拥护
北上
学问
审核
趋向
药用
惟一
做饭
帮忙
折磨
纯粹
时报
获奖
提示
远程
校区
可爱
一架
后悔
哈尔滨
抵达
鼓舞
遇上
驱逐
不时
附属
尖锐
否认
科学院
一倍
黑人
平行
敌军
面上
不尽
二次
产地
天文
分歧
回避
每周
不堪
奇迹
马克思
运营商
动机
扩散
该市
鹧鸪
儒家
示范
连同
充当
工会
真相
不止
公认
师范
狠狠
世纪末
航道
号码
万立方米
安徽省
下跌
没法
监狱
南岸
王家
撤退
重要性
写下
行人
周刊
进出
主办
要紧
兀自
赵志敬
严密
厉声
十个
万万
提请
村庄
缩短
届时
名胜区
相貌
资费
墙壁
建于
揭开
九月
处分
告别
女孩子
干预
审批
安娜
直达
儿女
公使
娘娘
汉代
山麓
保全
多于
半夜
开门
传出
曲线
春季
两旁
战区
慢性
模仿
公公
借助
黄药师
流经
农业部
画面
诸如
西门
解放战争
清末
进出口
来源于
富人
缘故
嘿嘿
闂
昨晚
一轮
阿根廷
游泳
任教
部委
闄
一出
指望
呼声
势头
降水
焦点
指南
封建社会
走近
两步
正桥
皇权
海面
李先念
共产党员
委屈
服用
南端
东亚
梅花
经贸
淮南
子弟
立方
花费
大理
完备
布朗
赶上
原材料
生育
清宫
发光
高尚
所有者
男孩
堪称
自动化
倾听
两院
为期
法西斯
跳槽
东北部
落地
力求
青青
给出
走廊
涨幅
首要
江苏省
嫂子
编写
工夫
优化
本土
华盛顿
从来不
追加
著称
股价
倡导
娌
语气
外商
门人
任意
参议院
选区
鉴于
青铜
学费
性别
急性
花生
小伙子
橡胶
通商
代表性
浼
灿烂
层面
两级
伯伯
公约
京师
发病
鐢
储存
座位
阶级斗争
包袱
圈子
现今
大盘
车站
笼罩
成吉思汗
见识
特区
季风气候
流派
靠近
糊涂
第六次
妹子
外边
抱怨
何等
赤壁
与会
明年
火烧
率先
宗室
孙权
金牌
站立
厦门
地表
冲动
全书
精度
来往
专区
敢于
电压
高声
介质
南朝
背心
吃惊
都督
猛然
苏丹
逃跑
第一部
适于
岄
民主集中制
阻拦
摧毁
华人
联名
小吃
使者
一二
收取
良久
金水河
核潜艇
必将
交替
相通
北洋
精巧
大哭
增长率
开设
宰相
大楼
叩头
眉头
工商业
查询
进深
寄托
挖掘
煤矿
强制
收复
岁月
表决权
巧妙
青海
智力
树上
存储
五行
上次
笔记本
被动
额头
别处
度过
二位
万辆
环绕
规格
壮大
较量
哲学家
蜡烛
对称
皇室
要么
口子
牢牢
场景
火焰
总长
吉祥
纯收入
山南
日趋
重组
高压
外来
统领
范畴
工作者
滃
提交
广东省
复合
传奇
老实
何时
功率
七月
奴婢
偅
相公
以西
东海
流体
清华大学
布政使
残疾人
制导
饮酒
中旬
自然界
科目
中华人民共和国国务院
统称
忽略
空白
屠杀
代谢
参谋
衡量
下手
冲破
向上
招待会
完好
锦标赛
欲望
掌门
乡镇企业
认可
毛主席纪念堂
宿舍
水产品
防范
隆重
中断
河水
阵容
樻
打断
安置
可变资本
大王
野蛮
包裹
出国
张翠山
亲信
打量
羊皮
两湖
书画
色素
此地
手持
相助
不语
预备
汉字
水分
闲暇
多谢
扮演
驾驶
交代
交付
城北
秀丽
包装
离去
尺寸
痕迹
交谈
南北朝
家人
挑选
苦笑
发觉
霳
心意
佹
厕所
末年
战车
使劲
极力
迁都
村子
汇集
仆人
葫芦
升起
比如说
轻轻地
图形
报上
朱德
房中
焦急
舌头
追究
峡谷
江淮
修行
黄昏
怀着
这边
清风
琢磨
部下
羊肉
走私
经济学家
示意
全新
周转
突厥
警惕
存款
宣读
巴勒斯坦
害死
绝望
崩溃
象是
明知
人性
制裁
越发
过早
剧本
福州
施展
推向
盈利
治所
叶大鹰
塑造
出面
无声
岂能
一匹
台下
界限
征收
全然
栖息
准则
山洞
审美
时常
兼并
抽出
诸侯
全县
第五次
一事
落入
功力
突发
葡萄牙
没收
谈论
臣民
第三次
传到
那条
小姑娘
行李
关节
驻华
衣衫
攻克
该书
婚礼
宁夏
判处
望去
邻近
饮料
嗭
名胜
昼夜
总兵
四肢
胆子
鹿角
散文
违背
商店
离婚
处境
家具
名誉
限于
都城
万千瓦
八路军
雕塑
地级市
申诉
目睹
面包
年产
尽力
其一
内存
关联
烧烤
矿床
节约
外表
匈牙利
求助
和约
无意
收缩
不惜
数额
一堆
研究院
左良玉
亲眼
疑问
出路
灯笼
上学
场上
督察
径流量
双目
鍘
閮
这点
挪威
抵挡
树种
节制
三合
高血压
李文秀
第一届
业余
开工
整天
政治权利
元帅
北美
中级
宫灯
意图
疑惑
邮政
列席
小于
游览
中国科学院
历经
通红
颤抖
鸟类
君王
办公
进门
弹道导弹
供养
缅甸
孙子
杭天醉
直线
日夜
形容
通报
陈友谅
各市
首府
多样
指令
六月
演练
趋于
热爱
嗕
土家
点燃
写道
应聘
畜牧业
习性
来访
简化
左侧
样式
清除
半导体
信念
语音
长征
听听
卖国
拓展
雪山
挽救
名茶
唐僧
同等
展现
全家
雄壮
杜鹃花
一心
双拥
大脑
韩子奇
拿下
珍珠
走过
沙发
迟疑
一灯
大败
产区
明成祖
决战
叫声
宝剑
相互作用
定向
轰炸机
建都
有如
势必
后边
会同
反倒
染料
中世纪
海湾
面条
传授
出动
仪仗
陆无双
评选
瞄准
启用
通向
发电
决计
花钱
拳头
急于
抵御
想必
战乱
传输
缓和
胸前
上半场
稳定性
顾秋水
一艘
老汉
清江
冒险
生前
海里
广义
果实
尤为
湖水
打发
共产党人
看待
劳务
山里
禁区
鏅
带到
围剿
步骤
一来
组长
思索
嶈
偷偷
奖惩
侗族
滋味
密布
盲目
修订
找出
到位
提取
忍受
成员国
骨头
上半年
抢救
一则
大圣
核桃
执掌
面目
天花
打工
虚假
预先
他妈的
遍布
获胜
单个
侵占
上网
生出
金花
红烧
万物
恋爱
字母
架子
遥远
工农
一举
宁可
君子
请教
公报
出自
梍
一院制
制造业
快步
埋伏
协同
称帝
芦花
四面
记述
做成
不致
剧院
杨嗣昌
更换
薄弱
发扬
皇位
猜测
耳边
防线
拦住
加剧
防护
联军
籗
决不能
一拳
弥补
毒性
明亮
姐妹
白衣
蜿蜒
每逢
缺口
机械化
房县
篃
震动
屈原
牛金星
旅游局
四人帮
手足
尊敬
方丈
裁判
上山
不一
无非
骑士
自家
平稳
叶莲子
犲
翌年
文人
立体
兴国
公务
大名
阴影
下半年
江青
见解
词典
寒冷
起初
三十年
筹备
专项
晚会
县境
料想
高等学校
刘邦
身影
犳
房里
十一届三中全会
还原
火把
龙门
血腥
改组
入学率
重修
渗透
尽数
蕴藏
急剧
抵制
仓库
江水
郑州
高举
怀抱
对策
戝
合资
强盛
纯碱
束缚
字数
晚饭
段祺瑞
东北大学
南门
建材
头领
质地
带走
文集
条款
出境
傝
来信
攻势
不好意思
定居
南昌
书房
夋
繁华
机电
无关
老山
新港
下半场
误解
难受
乐观
中段
向着
决不
一品
地理学
全国性
中华民国
连夜
机密
所致
唐朝
了不起
相传
河北省
出卖
拟定
国防部长
主演
顺手
人民英雄纪念碑
用品
邓小平理论
一首
硬件
同义词
号令
想来
救国
远离
圆满
纯属
不服
化肥
新城
增产
耐心
斯大林
我校
富裕
重檐
未曾
鍜
游击队
无色
框架
英格兰
实物
控股
马来西亚
京剧
荒漠
兵马
染色体
长篇小说
不明
约定
名副其实
参谋长
风俗
东边
借鉴
清清楚楚
镜子
上书
新石器
九江
陌生
古巴
来讲
例行
灾害
万余
铸造
加之
同行
客厅
只顾
阿富汗
来临
史学
肥沃
顽强
遍及
报酬
生殖
周芷若
语文
水电站
筷子
接口
政事
典礼
会场
动摇
天赋
海关
走路
眼色
法官
清水
讽刺
修正
长远
虘
锜
多万
后裔
雪白
车上
比武
葡萄
各派
堆积
馒头
内讧
实业
介于
爱好
黄鹤楼
大部
养成
山珍
不变资本
索性
国家森林公园
一家人
最长
本性
戒指
暗示
称作
雄伟
获悉
他家
东岳
毛病
辣味
世间
宜都
重庆市
何不
一所
一圈
落叶
鹿子霖
知府
放出
军长
心底
打出
万分
衰落
万里
胜迹
数码
肌肤
结局
富于
散发
造就
有的是
序列
分割
无可
摩擦
痛快
来得及
古今
用心
有望
一号
光线
政治局
珠江
牛奶
思潮
导航
旨在
外国人
喃喃
这一下
凌辱
隆中
黄家
背部
选票
陈水扁
套餐
本章
洋芋
做事
遗留
两支
强行
潜江
头陀
是因为
炮兵
一脸
朝着
时光
抽象
勮
怀孕
车牌
聚会
首长
好转
改制
担保
鲜卑
杀伤
古希腊
拔出
王夫人
所有人
市内
右派
毁灭
奴役
单元
演化
熸
子宫
消极
不大
各方
骄傲
市中心
所指
炮声
进宫
希特勒
舞美
大侠
山下
閭
瞩目
恒山
南面
惊奇
皇太极
拿来
直言
箢
指向
江面
高明
险些
属性
西岸
一队
前锋
柱子
五保
间接选举
超级
溶剂
厂长
总管
鄂西北
守城
高涨
中华鲟
相救
襄州
豌豆
工作日
法王
大洋
改良
司长
嘴角
领地
此类
四川省
流血
公职
这回
幼虫
复兴
自学
华中师范大学
解答
大举
糍粑
美味
产于
特意
长子
强劲
较差
确切
开出
明末
一早
阻碍
驱逐舰
罗田
总队长
碰上
崛起
数日
几声
微生物
底部
侵蚀
经济作物
安乡
山海关
现役
闈
勪
晚辈
变态
月球
山峰
联合国教科文组织
验证
根源
远安
服侍
前夕
落到
连声
繁忙
风情
集团军
灭绝
风水
火药
内城
均衡
担忧
捕捞
中队
阳新
首批
第七
精英
缺点
迹象
带上
七个
照例
接见
譬如
恰当
头儿
角落
庢
报复
勾结
十七年
星火计划
坐标
石桥
留给
智能
逐年
站长
嬫
竞选
配件
快照
国共
生产方式
大厦
差额选举
中密度
折腾
造纸
接应
相处
万公斤
可知
猪肉
江夏郡
一等
欢呼
草丛
女郎
钟祥市
报刊
讲述
泰山
病变
汇合
北门
静静地
其后
纸坊
营建
栏杆
北岸
屋脊
亲征
傍晚
统率
华东
水电
中专
劳动人民文化宫
清新
请问
新华门
个股
敦煌
拾荒
珠宝
天河机场
国产
华容县
嗓子
中央委员会
恩施土家族苗族自治州
掩护
宏伟
项羽
中洲
倘使
滚滚
冷却
闪电
贾志杰
翰林院
罗清泉
蓦地
星系
哭声
各处
赤道
终端
创始人
城郊
南极
英国人
长春
一世
随机
贫苦
跟前
蒋祝平
身为
不中
王国生
高基庙
看成
透过
襄城区
珞狮
走马岭
刘子华
北面
选用
杨桥湖
使馆
玩具
傅德辉
焦山河
隐蔽
张湾区
预警
朝阳
机能
催促
短信
默默地
向下
流露
风声
被俘
况且
下山
行程
大刀
徐州
正统
亚运会
妥协
电报
山头
写成
噷
其时
中枢
转型
陈述
出兵
观音
传达
挫折
场地
长久
中将
宝库
脱身
处在
保守
荣获
一路上
寂寞
历程
上台
体质
一味
老夫
阁下
命中
之江
长期以来
中央政治局
提拔
全球化
转为
编成
以示
问世
话剧
闪烁
树枝
山寨
近似
对准
大幅度
正规
宦官
绉
珊瑚
景色
繀
阵法
八角
操作系统
无穷
自愿
勯
漕运
平定
驱动
迫切
显赫
喜悦
风气
呻吟
各路
断裂
大字
糟糕
持久
本届
这笔
性情
掌门人
芙蓉
浪漫
名将
那日
事宜
左边
举措
大红
刑罚
慕容
素有
程灵素
欺骗
效力
或者说
鐫
交叉
今夜
私营
词汇
催化剂
头目
搞好
天星
中型
真诚
西洋
啗
会后
军政
躯体
闀
奉命
声势
并入
流出
低温
演讲
差点
中央军委
木头
可比
迎来
以至于
歼灭
文武百官
感慨
亲手
閬
设计师
声称
动弹
疑心
陈独秀
地毯
除去
三十
罐子
老鼠
印第安人
用不着
山中
一响
相近
启发
案例
讨厌
点儿
再有
老头子
芬兰
房门
鑳
来历
器械
丛林
地壳
桥面
禁地
境外
决定性
恶化
继位
埌
干活
一株
变质
积分
直属
维也纳
严谨
月经
修筑
千里
不仅如此
驻外
外出
一斤
集成
电子书
少爷
第三批
难民
瀵
加深
活泼
相接
相交
门槛
放大
歌剧
局限
鸳鸯
帐篷
排水
大纲
沉思
忧虑
公顷
汉水
陷于
段正淳
水量
保定
锦衣卫
薪水
炮塔
梁山
受过
手势
朝代
处理器
楼下
一端
贩卖
石化
态势
洞口
共有
补给
一组
列宁
小康
果树
三日
链接
奉献
潃
强势
一点点
语法
尾巴
彝族
放下
形制
宋朝
牌子
默默
交战
侵略军
手工
参赛
腐蚀
集结
不定
起草
少于
管家
富户
方位
津贴
龢
创造性
水位
王位
十足
老虎
入学
迁移
神态
垬
罪恶
眼镜
队友
不多时
有用
商场
彩色
鸦片
结晶
癌症
驻扎
志愿者
线索
璺
来得
遇见
感叹
语族
体育场
南侧
原油
背影
两件
一侧
大妈
难怪
反之
面孔
归来
良心
三路
猜想
搴
马匹
兰州
外人
摆在
契约
水上
半空
协作
忽地
阿里
各种各样
东欧
上方
苍白
义务教育
行驶
一共
跃起
重型
写出
实体
编钟
斩首
注射
你好
双喜
开玩笑
记者会
在位
北洋军阀
内在
全局
士气
挡住
兴衰
经受
谷地
看不到
圣地
大权
常绿
浙江省
弃权
事迹
吸取
米格
讲求
进驻
好奇
亲属
赞同
钥匙
饿死
单刀
运算
当做
按时
箱子
最好
入境
欏
致命
百分点
出击
不由
武警
沦为
往日
酒杯
采集
现任
鼓吹
高产
立足
流贼
稍微
无霜期
踏上
压缩
参见
山东省
宣称
轻工业
告辞
诏令
挥舞
牲畜
本省
扶贫
鏀
知识产权
握住
遏制
定然
中小企业
黑夜
沉着
功臣
嗘
新人
二哥
勭
太和
你家
哑巴
垂体
柯镇恶
订立
秋天
罗刹
剧团
分辨
深夜
瞎子
隐居
孤独
草地
车子
女生
总监
郑重
沿途
外事
义父
宋思明
金水桥
调解
索尼
层层
攻破
支队
首饰
万人次
绿豆
还好
上将
操练
衙署
董小宛
布什
红花
躲避
也罢
水土
播种
身份证
犹太人
当面
后宫
负面
管理者
不理
紊乱
直辖
窗户
课堂
大伙
勤劳
白马
西向东
轻工
野外
骆驼
脚步声
功劳
高档
凝聚
认同
陕北
大姐
好多
闪避
敌后
至尊
充实
人影
管制
裁决
北侧
聚居
工地
入口
鸟瞰
博客
八卦
救援
胡说八道
文革
行星
印度尼西亚
大树
饭菜
鏍
捷克
疗法
幸好
凌晨
联手
一时期
流失
器材
几日
利税
夸张
迫害
陶瓷
德军
妖精
双边
行礼
入市
分公司
欐
下滑
体操
部件
两端
预报
来时
阶梯
胡说
无线
下落
紧接着
所有权
凶猛
结算
金牙
盼望
十二年
路桥
浩浩荡荡
可笑
新高
行径
十三年
进京
呐喊
关怀
后退
路边
反动派
耽误
第六
余地
青睐
谷物
年末
仇恨
警方
乌克兰
震撼
恶心
鐜
多用
牢固
林立
金星
力图
担子
攻打
所有制
沙僧
糯米
涘
不对
贝尔
对了
神奇
脉冲
节省
细致
交错
党组织
灾区
轮流
应届
试试
陵墓
电池
主角
增收
外形
境地
纺织品
绳子
终止
行列
墓室
姿势
自然科学
四项
计较
浓缩
疗效
寂静
南亚
搜集
甘蔗
都市
茫然
难过
坏人
前所未有
耕作
武汉大学
品位
注定
驸马
谈谈
创制
言论
口腔
坚守
法人
氛围
压制
运转
照射
罚款
迷信
吴摩西
国际化
神农
名列
烟草
抗敌
隔离
今儿
朝政
兼有
走势
百花
求得
秦岭
可口
竣工
一串
乘坐
洪武
明珠
鐒
敌方
兄长
加班
长长的
伊斯兰
御史
下设
山路
行军
老家
柔软
衣襟
助手
告知
厚度
师徒
鄂豫皖
王子
慕容复
外围
区划
镇上
抛弃
似地
苏格拉底
轰炸
陈瞎子
成化
范蠡
中兴
介入
远销
诚信
版图
格式
门类
每股
大块
板栗
选举权
惭愧
贿赂
第二年
游牧
察看
过境
羡慕
凝视
为名
地板
正月
天大
永不
洞穴
刊登
导师
议程
牵引
岳飞
激战
往事
贫穷
破裂
溶于
温泉
体格
惊呼
贬值
未经
轮船
小孔
天山
荷叶
生源
保住
圣旨
实战
该校
骡子
都察院
水源
楼梯
研讨会
当成
注意力
营长
白宫
生物学
热门
静脉
长治久安
见证
出场
上报
逼近
緱
农历
隆庆
焦虑
世袭
山石
东晋
千尺
乡下
护士
短暂
反潜
带头
赋税
蒙古人
李鹏
尽头
保密
两手
傣族
事务所
开办
书面
鸭子
下旬
绳索
排队
双臂
啤酒
右边
马良
忍耐
无可奈何
店铺
慌忙
生产能力
广布
九个
掠夺
身着
搏斗
视觉
石门
重用
二世
第三个
壁上
反共
油画
女婿
单词
疑难
迄今
刑法
宾馆
头痛
向阳
西亚
西城
复制
四通八达
幸运
南斯拉夫
传送
咽喉
黎明
诸位
成交
古都
起兵
乘客
大大的
红外
爱尔兰
树林
困扰
主教练
司马
卫士
工序
历史性
察觉
舍不得
造船
秦始皇
大中型
亯
党政
观赏
徐天宏
一棵
郊区
芦苇
圆柱
餐厅
五四
呼唤
家电
刚好
市级
隐瞒
诸国
治权
黑白
顶端
嵩山
痛哭
动荡
主帅
五十
性子
同类
英军
重镇
重阳
红娘子
墓葬
陈列
当着
喜事
以求
当晚
共享
抗击
布满
裤子
教室
压抑
江西省
戜
显示器
建工
不耐烦
望远镜
军费
化为
破译
宫城
三角洲
三名
油田
胸膛
云雾
会晤
一隅
两声
首座
通高
理财
先令
嬩
举人
无偿
省政府
胜地
流水
不知不觉
双重
残疾
魏忠贤
打造
胈
十一五
英特尔
修炼
日渐
波长
食堂
客场
作文
马路
总共
鑷
水文
外科
用药
导游
愈来愈
菑
吐蕃
汉文
三元
张英才
振兴
添加剂
通达
港澳
莫名其妙
党派
两下
两道
商贸
发抖
引人注目
坚实
中下游
胜过
钻进
泥沙
那年
禰
互动
怒火
力争
三座门
洋人
照样
年级
外文
巡逻
侥幸
上线
乐队
不当
器物
导向
独具
倒退
平生
对外贸易
亮相
野战军
房价
常德
终年
玉器
四名
乌云
被子
八一
天河
全国代表大会
增至
拰
不容
右倾
列强
周末
意愿
厂家
收支
九间
人民军队
庝
打下
访谈
名声
运送
木板
门票
余家
平坦
赶回
敞开
体长
四面八方
亲密
积温
畸形
新娘
新浪
宁静
簇拥
皮子
世界各地
攻入
民主主义
往后
佷
假装
倡议
杉木
顶上
庡
美誉
极度
卫生部
兼顾
影响力
舍得
而后
相遇
防水
活塞
养老
江中
步行
迈进
风采
不可避免
吸引力
微波
第一位
暗自
属下
气质
插入
文官
上课
熟练
前方
时时
债券
券门
甘心
动身
张召重
天皇
系数
气愤
石窟
金轮
时说
物理学家
前身
一块儿
善人
劝说
巡航导弹
降落
霍青桐
容貌
专科学校
且说
放射性
华南
新西兰
城头
频频
扭转
变法
别名
机票
实录
天麻
击中
政治委员
假使
瑶族
爱心
侧面
战败
阻力
摇晃
尺度
杀手
永安
冲出
热心
石膏
略有
那次
绕过
服务器
高空
不至于
三类
调和
纵贯
毫克
预言
蓝天
增殖
木婉清
部族
叙利亚
五色土
朝鲜族
精通
上演
舒适
綋
几经
构件
解散
露天
唯有
涵盖
殖民者
亚太地区
一战
排斥
驻足
善良
并肩
赏赐
山口
弱点
写信
一期
俯身
甲板
打入
太守
金刚
电磁
公生桥
相识
看清
北魏
无从
左翼
中书省
除外
罗马帝国
王纬宇
贪污
日记
无效
乐于
轻型
无处
镇定
暴动
拍拍
归属
折子
后方
书生
繁多
御驾
任用
里边
摔倒
绍兴
身形
若非
追溯
纠缠
规范化
借款
梁启超
警官
利于
解体
两块
胜负
数年
军团
降价
电路
元首
前边
衣裳
咸丰
整治
渤海
大山
本版
威严
显出
炸药
赚钱
肩上
胡乱
昆仑
篮球
渡过
师生
柬埔寨
潇湘
碰撞
诗篇
武官
常年
信贷
半径
最高峰
内政
面色
喜剧
故城
再生
冷汗
伤势
照明
下次
狩猎
排长
台湾省
侄儿
航空母舰
自卫
台北
防卫
输送
选项
魔教
都督府
成千上万
假期
使出
妨碍
天亮
战马
归纳
三千
形似
五岳
趁机
市政
分量
惯例
伴生
一员
精致
院内
开业
剩余
生产者
犱
医师
嚭
悬殊
合计
关系人
依托
水生
数次
安抚
掠过
关公
不忍
教徒
白族
重任
细细
高僧
胎儿
田伯光
再三
农场
神功
承包
喊声
赶忙
看望
修养
罪名
十七
熊廷弼
威风
神气
全场
甲鱼
几名
氬
大选
捕食
外观
比比皆是
径直
提防
寺院
产权
固有
金代
突围
呕吐
瞻仰
站住
数据库
通天
操心
奋力
黄连
两眼
极限
服饰
客店
往年
争执
扶持
宝石
视野
有无
石器
动力学
抚摸
宽广
剪刀
下班
刀法
追问
忙碌
一月
许可
为着
几条
血压
数十年
焕然一新
右侧
彩陶
为民
吆喝
槦
在职
气流
仅供参考
紫色
护卫
日照
化解
穿越
天下第一
钢材
慷慨
惊慌
初年
圆圆
呼叫
千古
政制
工场
流氓
陆游
小雨
蘑菇
恨不得
查处
八旗
骨骼
官话
旅馆
明教
户籍
朱红
关中
字体
反攻
居多
抗生素
镜头
围着
身心
中南
奈何
卑职
农田
驰名中外
车间
早晚
望见
野心
理应
金丝
不利于
三军
前一天
职员
漆黑
原谅
尼姑
独立自主
剧目
省外
量子
吸烟
排出
驻军
赞扬
城堡
奔跑
泡沫
雍正
盛大
近年
地狱
光电
中国人民政治协商会议
销售额
弹劾
崇高
水底
请安
耳光
官署
空运
回身
新风
渔民
分水岭
务实
推理
看好
空调
金学曾
摆手
里头
亡国
学堂
点评
鐩
两点
幽默
运输机
统治阶级
邻居
仪表
炒菜
勇士
三角
交易所
捕鱼
李莲英
羁縻
洼地
其他人
衣袖
抓紧
小船
太师
饲料
列举
冷冷的
淮河
矿冶
薪酬
湖面
中道
全称
财经
眉毛
减弱
欧洲人
自治权
祭天
新民主主义
病因
惊动
过后
可行
王守仁
潮湿
二来
租界
赌博
修复
锦州
坚固
深山
选定
物流
稍稍
说服
数十
河段
国人
愈合
好不好
歌舞
情势
炎帝
城池
初级阶段
潜水
棉纺织
常住
弥漫
盛开
农奴
忠诚
取名
魏晋
黎族
媒介
容纳
紧急状态
两行
寄生
适应性
被选举权
小儿
积雪
临近
迎面
过剩
解读
米兰
退役
起码
十五大
海军陆战队
陈文洪
园艺场
门楼
庄重
中介
两头
火炬
野兽
有限责任
望望
无须
做人
爱因斯坦
调研
应急
一枝
感冒
高等院校
仲裁
辈出
技术开发区
旺盛
巨额
犯规
省城
纪念馆
伺候
增进
第一天
官场
定价
轻声
冷战
训练班
觉醒
油脂
四级
刺刀
耗费
规章
可可
心疼
叫卖
大专
腊肉
整修
夎
诱惑
江河
所学
球场
而立
石碑
水路
选任
慎重
极好
恭敬
布依族
控制系统
推测
教导
几百年
战俘
海岸线
柴禾
奋起
牛顿
十几个
重申
赛事
富贵
知觉
丘处机
这部分
跨度
烟雾
邮政编码
分院
海内外
全文
石壁
致远
投机
潼关
国家计划
詹姆斯
仙人
枕头
禁不住
新河
评审
雇佣
造诣
快快
公寓
一新
徘徊
全权代表
快要
国立
唯独
多余
伦理
罗马尼亚
绿萼
开幕
反思
卧室
夷陵
矿藏
定理
修理
坏事
秦汉
企业家
棰
招商
转念
最先
刀子
蜈蚣
全城
滀
失利
数值
开头
电源
兼职
秀才
邵大侠
事变
会议室
恶人
孙四海
营地
京广铁路
功效
泉水
我行
通讯社
僵尸
杜绝
东城
小时候
武陵
轿子
关头
半截
指导员
卓越
子公司
渡江
喉咙
凝神
外援
坚硬
文责自负
赵寄客
惯性
雨水
土特产
不久前
变异
饥饿
掀开
一台
餐馆
转运
一模一样
院中
末期
开阔
动人
增值
沙丘
票价
工农业
培训班
公道
国务
紟
阿拉伯人
促成
重力
欺侮
概率
阔叶树
城垣
鲜艳
荒凉
综合治理
展出
掩盖
献策
拚命
被统治者
心愿
两方
住院
殡葬
越国
烧饼
大顺
独裁
研讨
外交部长
移居
群众性
季后赛
曹禺
林中
尸首
四位
问起
蛋壳
归于
团团
屏幕
损坏
三家
果断
肝脏
替换
中小
中途
两栖
数万
健身
黄庭坚
填补
无辜
泥土
大功
权限
补贴
永久
劧
新民主主义革命
黑龙江省
瓷器
乳房
退回
共识
倒霉
野人
大河
风雨
散布
签名
知晓
发送
社长
算术
苦难
飞舞
嗐
喊道
思念
光彩
阻挡
公安局
粮食作物
归还
观光
熶
扩充
宝刀
抗争
客车
长江三峡
总和
电视剧
山珍海味
星云
奉行
遗体
体检
鎸
身受
字样
信件
刻有
民主党派
罪行
幸亏
显露
静止
最深
惊醒
过儿
危难
回旋
平津
赞赏
说实话
白莲
二氧化碳
宏大
捕捉
紶
苦苦
事例
拈阄
腹地
有钱
岩浆
大湖
完工
气派
水泵
牌楼
幕僚
苏军
党组
袖子
二十七年
贫民
脑海
打架
畜牧
乖乖
而论
批量
演唱
断定
派兵
剧场
狼狈
好不容易
发展观
护卫舰
预料
光谱
多条
大江
关税
关山
好歹
姑妈
腹中
州政府
肥料
参赞
北洋政府
点着
死伤
圣水
老兄
赞叹
微弱
礼堂
欺负
灌木
武术
脸颊
人民检察院
南口
德意志
悄悄地
正说
留下来
旗下
几家
减小
二战
无异
田地
背面
蔓延
事后
甚为
换上
呰
十几年
四品
人次
阻挠
小将
诗集
门内
民族主义
庄稼
故居
人民团体
基金会
一粒
十二月
代理人
平地
声誉
试题
中产阶级
争吵
零星
走访
掩饰
南县
谣言
已成
公然
钢筋
务必
俗名
按摩
跨越
西伯利亚
鬼子
聚合
身高
筑城
实事
抓起
着眼
守卫
专著
处死
灯火
翻修
认出
地里
好几个
三中全会
上周
宴会
糖尿病
发信
滆
水准
楀
针对性
救济
再生产
本能
鳔
大跃进
烹制
十万
失调
绵延
治国
排水量
毒蛇
烧毁
师团
比作
智利
五星红旗
看重
名优
冤枉
安心
顶部
申花
一排
新年
呼呼
平儿
分数线
陷阱
停下
暂停
哈尼族
料理
一连
精锐
看起来
转而
交界
跪倒
清澈
繁重
交锋
要害
看似
图谋
职称
拉萨
厌恶
孙九爷
怒气
求职者
不屈
最快
会计师
大面积
朦胧
踁
同伴
世俗
丰产
鍓
鼓乐
西湖
中和
高粱
自立
为准
光谷
十九年
毒品
育才
天地会
抉择
表述
树干
动用
仁兄
悲惨
剧社
晋升
意味
闻一多
熔点
急流
甜酒
撳
家门
整数
早日
未知
十一月
伸展
颗粒
下锅
特地
石狮
书本
婂
别墅
海边
飞扬
纤维素
国家博物馆
大同
蒲圻
奖学金
田福堂
砂土
自尽
持股
秘鲁
云母
高新
烈士
出血
一经
高高
好人
佺
亲身
繁衍
合力
天黑
发源地
线性
粗大
气概
杭汉
冲积平原
住宿
惟有
大革命
童子
余下
两根
问问
资讯
万向
网民
繁琐
天生
联队
史书
喷出
学联
不由自主
京广线
香味
大肆
资深
祝贺
空降
抽屉
亲热
相会
非同小可
搭配
彲
聊天
不败
流泪
钱其琛
中军
徐秋斋
心腹
众将
秭归
茫茫
股本
衔接
貜
师母
大方
强力
活性
现实主义
眼球
涂料
国共合作
右臂
吃法
精密
慈善
大冶
比起
人学
纤维板
摘要
奔腾
民工
暴雨
胡锦涛
品级
营救
奔驰
借以
大火
质疑
改成
互助
核试验
财政经济委员会
清蒸
马来
哽咽
湖西
流亡
外头
小学生
二中
夸特
邻国
自发
白石
随身
班长
招聘会
簨
看病
笑嘻嘻
业内人士
公积金
学到
鸦片战争
火器
肆意
惊喜
阮大铖
上边
真空
圣人
孢子
听众
短短
电机
被告
领取
昏迷
史记
毒药
放声
法典
庑
参照
沿线
李肇星
本世纪
班子
东升
得来
用意
失踪
深圳市
大石
自知
耽搁
驾驶员
天鹅
悲痛
辞去
严禁
无记名
鏋
会合
不平
混战
新纪元
监督权
注释
外皮
河边
森工
下部
星宿
独居石
护送
工业部门
傀儡
割据
弧形
有余
紧迫
想像
采纳
松树
构建
高位
李俊
战事
双腿
思想家
去过
应城
亚历山大
收敛
螺旋
宁愿
亲近
宽大
新华
咬牙
端门
拥挤
陙
食性
州府
探花
钟祥
猴子
翅膀
毛尖
半决赛
鱼池
昨夜
诸州
推举
左臂
霎时
净利润
民航
钦差
峨嵋
宜城
名家
救人
海南省
迦太基
一幕
正值
氨基酸
军营
回应
劲力
余万
为数
凶险
万股
鏁
湅
居于
从没
误会
照料
口音
明洪武
传世
黄陵
勾当
辽宁省
陪同
化疗
常数
十天
中国历史博物馆
金台
口里
兰花
黑陶
山道
厢房
惨重
边防
美学
四中
贫富
多媒体
一发
削减
封面
流芳
宫门
榨菜
山前
到时候
集体所有
间谍
日元
许家
酸性
椂
留意
书院
落成
哭泣
林冲
鹿兆鹏
税务
愚蠢
批次
玩笑
第一名
隋唐
知县
调剂
藻井
消毒
防备
张大
傻子
閫
数千
重心
贵妃
门窗
夌
酒家
积蓄
三中
单板
第一种
丹江口
不通
用水
各州
立下
当先
顽童
大自然
荣禄
歌声
滥用
克里特
接管
中国地质大学
五大
上任
明世宗
解脱
政治经济学
舅舅
江陵县
著述
绗
初时
琵琶
将要
民营
汉川
玫瑰
德安
武陵山
第一步
狮子山
非凡
无形
长叹
管理权
个头
新式
监控
余额
箣
拿破仑
苏格兰
见得
鲟鱼
发信人
讨好
逃出
母子
香料
宁波
陈贞慧
两路
确有
此言
官山
年薪
流芳百世
擅自
轻微
第二产业
埋怨
早早
篮板
军事法院
团城
鲜红
沿江
山镇
五百
困惑
榜眼
长河
双儿
边区
住处
人民解放战争
大将军
无能
自卫队
舰船
房基
抗拒
新四军
殷素素
阿曼
利息率
舵主
张学良
五里
淡淡
药师
降临
掌声
背叛
溶解
糯米饭
激昂
总称
神农架林区
运力
政局
关上
服务业
愤慨
路过
千张
有毒
正直
受不了
举报
沮丧
明儿
结实
先驱
朴实
耕种
大都城
尸身
退化
通俗
超市
关切
庐山
故障
军事检察院
要死
吴汝义
章宗祥
有所不同
指引
产能
优异
洺
矿石
月底
手帕
群臣
潜在
文科
中南财经政法大学
偏重
勘探
清炖
船头
暗想
反手
卢俊义
瓦屋
优于
中新网
沙湖
逃避
急速
肢体
理学
昂贵
趁着
城下
远征
凯旋归来
畏惧
减肥
土地革命
岳父
坐落
委内瑞拉
三户
楚雁潮
解放路
走狗
警卫
稀有
有益于
北非
炒米
工作部门
起诉
起床
雇主
公有
市容
大奖
治病
内分泌
法治
联络线
踅
高陵
增高
百官
南唐
领会
白鳍豚
池塘
传染病
卫兵
我省
聘请
院里
经济社会
安理会
天桥
咱俩
侍候
南下
抬高
建平
宝座
汽配
关门
事态
不得已
刻画
滋润
怪物
宽度
公安县
口头
救助
年头
传令
神来之笔
汇票
门上
宣扬
第一产业
武汉理工大学
高亢
汉阳府
教义
阵阵
概论
客商
大沽口
火灾
匹配
试用
听力
计量
探雷器
工业园
湘鄂
山西省
姘
班主任
盟主
回收
香蕉
河蟹
回想
赵大明
沉淀
苗人凤
竹溪
交配
不足以
蕴藏量
远东
干干净净
忓
鑻
体表
追逐
引领
瓦解
功绩
浠水
柏拉图
奏折
电梯
江豚
贯通
耶律齐
将近
淹没
心血
边上
责备
首届
花卉
无聊
推拿
牵制
质询
流程
风流
提案
贾朝轩
村长
多项
绘制
酒精
放手
史诗
播放
嫔妃
水能
何在
珰
范子愚
议题
蓬勃
急需
神往
有序
湖北省政府
世代
红土
心脏病
社会科学
婚育
克制
同工同酬
岸上
十六年
东岸
法语
恩施州
监利县
拯救
法则
连长
视线
前沿
祖父
盛宣怀
愬
土匪
青山区
自豪
生产线
京山县
过敏
轿车
民俗
李沅芷
威信
石湖
莲花
常人
金平
故宫博物院
希腊人
民办
土层
端的
德安府
转发
天真
崭新
集成电路
福建省
价钱
剧毒
提及
花样
鳇鱼
几万
清廷
女王
四纵
加盟
领导班子
中山堂
拉美
琴台
罗田县
钱币
张之洞
寒意
断层
民主革命
经济体制
大理寺
学府路
谢恩
两项
十一届
岭子
沙市区
响声
乱打
调制
踌躇
二十四年
身躯
交界处
填写
这样一来
王晓东
新堤
手枪
互不
沙复明
应聘者
登山
恼怒
几十个
读书人
建设路
自给
后备
争相
汉武帝
暂且
特级
迟早
卤鸡
何故
古称
点缀
圣母
赛后
多元
径流
死亡率
没事
截然不同
踏实
卡车
应力
贮藏
囨
成型
下边
祖师
选集
立方米
上海水产大学
石墨
对照
礼貌
盛华仁
国营
商用车
朝天椒
驰名
末端
书目
时而
鎰
卫队
县市区
瞧见
鰁
三品
价值观
龙大
武当山风景区
华中农业大学
模范县
保姆
解剖
笔记
追击
老年人
大堤
周长
玉虚宫
玄岳门
反馈
万尾
邮电
轮番
庸俗
江岸区
太祖
乔晓阳
学界
汉阳区
陈丕显
小河口
烹调
刘郎浦
文化路
爱国主义
小康县
缴纳
汉南区
满清
过往
闻到
教育科学文化卫生委员会
以防
氧气
严寒
流下
俞伯牙
荆州区
文教
郭树言
说好
正宗
退却
晃动
蒋家冲
意杨
镇江
色酚
江纳苗
曾思玉
区雄楚
南岩宫
荆东
调关镇
拉栖第
请来
车城西
殷家洲
农业部渔业局
苦恼
姚师傅
崇阳县
车厢
袁宗皋
担当
黄松龄
大湾特
长江水产研究所
筑成
中华和钟
大元帅
反感
感应
发展史
细心
启示
物种
审讯
珍惜
两会
举止
光滑
升值
片面
油漆
白白
战备
分析师
裁员
比不上
纵深
英才
无耻
俌
反响
铭文
随从
下层
原子弹
渊源
转折
婲
一朵
褶皱
陆上
纳什
共计
温差
光亮
武将
概述
大雨
终点
微观
十一年
历届
经理人
有色金属
游人
南通
乌龟
代数
肃穆
热泪
抗原
听从
牛爱国
弹头
前人
木结构
青城
凌厉
吞吐量
隔壁
亾
法案
真心
不合
步入
直奔
预订
多方
八大
抓好
先秦
总公司
电气
本文
沙皇
传闻
熟人
岸边
三座
供求
食欲
娘家
不适
药店
香烟
厮杀
楚王
柟
纳粹
稻谷
编队
窑洞
北海
委派
真个
第五届
粉红色
胚胎
浑厚
环球
衰退
小路
怪不得
奔走
警戒
月初
云南省
鞭子
灵柩
不必要
健壮
剂量
初次
亲生
在手
唤起
主子
官司
照耀
击落
飞跃
便捷
小心翼翼
亨利
一动不动
首创
冲着
忠心
法兰西
就是说
约翰
会战
阴道
墓地
太湖
敬重
师娘
密封
候补委员
制剂
政治协商会议
编剧
通话
真人
安宁
不光
隐患
设计者
参战
装甲兵
护理
慌乱
盘旋
适时
案子
验收
再现
行进
起步
石子
常识
管理局
显现
摩洛哥
生息
志愿军
上门
口岸
大旗
歼敌
第三代
武昌起义
召回
丛书
细看
美貌
轮廓
高端
道长
财力
一千
大乱
酿成
寒风
半月
着地
天竺
通货膨胀
炎热
从容
孕妇
尾鳍
细腻
病理
毒手
北伐
足以
理事会
当儿
蒸发
西山
责任感
意识形态
火星
野战
争端
山体
破旧
高三
使节
精选
周岁
留心
车体
倭寇
开局
开车
一束
谋求
陆菲青
菊花
海南岛
请示
一分钟
豪杰
下水
十四年
伙计
进发
家境
平和
皮革
泄露
小城
天王
货币资本
拨乱反正
歧视
他用
贪婪
放射
千斤
中央电视台
保管
深感
时节
保加利亚
好比
幼年
黄沙
留学生
怪异
商品经济
方形
坟墓
比率
传给
外号
路面
何人
乐趣
王八
汗水
四十
塽
平息
艺人
荣耀
土豆
胡闹
稀少
炎症
守护
丁思甜
抗日救亡
核电站
建交
瓜分
临死
伴有
二爷
漏洞
耀眼
切割
泛滥
带回
闪动
小岛
东北地区
下车
做梦
龙袍
呼喊
回复
精子
老弟
后卫
午饭
嚜
波罗的海
红楼
闹事
脊椎动物
马克
指明
月薪
刺客
一伙
满怀
众议院
南美洲
审定
为重
序幕
侧身
解析
涡轮
立马
面部
一角
好评
几时
投身
功课
理工
空虚
之用
等离子体
国家队
奇异
可靠性
不在乎
不解
涨停
羟基
案情
入选
问候
高分子
粗糙
扫描
装甲车
早知
摄政王
牧业
美国政府
账户
悓
享用
情愿
航空兵
经营者
几件
拜见
无人机
四维
皱眉
工学院
往返
监护
海滨
洛杉矶
界岭
活人
噪声
抢劫
间隔
保佑
一晃
花瓣
夜景
开心
跻身
入手
偏离
旷野
传感器
课目
渔场
挺进
呆子
募集
推算
制服
张宁
敌手
傜
玉音
开除
令狐
阎鸿唤
冰雪
革命家
井冈山
战舰
机翼
三尺
生猪
胜任
楠木
长假
黄山
路径
不妥
神庙
害虫
因子
名次
庄子
裘千仞
人称
逃脱
工人运动
悲愤
慕尼黑
奴隶制
绝情
标记
无以
老妇
冰冷
市镇
为害
编纂
酒楼
细长
外侧
标本
推迟
眼眶
鍖
趴在
融入
椭圆形
潇洒
现出
伪装
惊叫
撞击
发给
考上
楁
壮观
叔惠
捐款
孝敬
句子
杨百顺
最少
详情
热水
淤积
罪犯
石板
大户
多座
手艺
演说
寺庙
有点儿
创意
植株
栧
萐
下雨
物产
毫无疑问
蝴蝶
心念
录用
有待
慰问
座谈
皇族
占用
激流
闺女
佽
兂
戞
高程
相邻
惊异
统辖
长袍
应试
偿还
深知
特长
千户
列表
残余
一届
疙瘩
三角形
大理石
面具
郑和
牲口
咬牙切齿
大大小小
皮鞋
烟台
原地
容忍
总局
其父
不胜
交纳
桂花
热线
数百
多米
牵扯
保安
原子核
战绩
主人公
皇爷
果真
至关重要
脆弱
剧痛
疲惫
危及
武装起义
抗体
几口
荷花
投放
机身
褐色
戠
同治
本部
新世纪
险恶
特种部队
全线
会试
单人
先天
读完
机床
燕山
传动
攀升
德国人
不快
边疆
继而
废墟
相对论
毒物
马蹄
压低
充沛
接替
三项
快活
小贝
并行
职官
拂尘
催化
少年儿童
路子
日用
动植物
道光
嘲笑
歌颂
大礼
右翼
提督
表彰
辩论
食指
齐名
批复
海口
该当
救命
修葺
刀剑
系统地
载体
熺
麻袋
各别
精明
赛场
随口
指挥所
广州市
妄图
法国人
冠以
天津市
郡主
响亮
围棋
高悬
放过
人际关系
原型
近乎
再行
值班
泄漏
冲开
红薯
查出
院落
施主
仇人
铁棒
三者
解放后
放火
五千
一百
业已
轻视
长短
两翼
堵塞
夺冠
决意
可想而知
陡然
彭德怀
马背
轨迹
戚继光
悲伤
莫大
辅导
鎷
理事长
下调
农家
盘算
国籍
一文
呼啸
助学
开端
公私
去处
乞丐
除此之外
不合理
柴油
统筹
何事
水温
乙醇
闲话
生母
议和
一时间
招办
第二批
树皮
蒋丽莉
耶稣
生病
骚扰
乔木
人行道
北向
扎实
联合政府
儴
叶片
乡亲
二则
开罗
宫里
试探
办公厅
电荷
他俩
一具
严守
无知
安放
中性
论题
湖区
鎺
顾及
喘息
看守
复辟
衰老
天才
河西
鵞
自来
酝酿
争斗
郑克
折合
输电
流向
轻重
双脚
郁闷
忠实
遍地
镖局
艰巨
农药
一概
无尘
一枪
关口
世家
连锁
嬶
私有
小厮
城南
电极
尽早
交易日
无锡
胸部
南移
磁性
毛巾
依附
毅然
叛徒
顾源
教科书
余年
贤良
元旦
音乐会
试卷
投向
标题
十多年
活儿
檲
巡洋舰
适中
眼皮
奖章
博士生
成年
大喜
促销
磋商
脱落
科比
半分
切断
考古学
太阳能
指头
振奋
非但
奢侈
巨头
最强
容许
炮火
神道
烹饪
恶性
音乐学院
微小
指挥员
及至
中央集权
金嫣
槐树
剩余劳动
打交道
全方位
相望
抨击
贯穿
瘫痪
偷袭
深沉
升降
没用
喝茶
违规
直通
士官
为生
登录
敌对
马头
航程
醒来
侦察机
小字
低级
机理
沿河
常驻
横扫
课本
肉体
北麓
神学
异议
跳出
表层
单打
中央委员
宴请
木雕
六大
浪潮
磴
字迹
三代
马克思列宁主义
赠送
涌出
论断
结识
厚厚的
童年
一顶
大成
法兰克福
前行
四次
未有
马刺
往常
水手
麦子
海滩
年前
制度化
高地
普鲁士
本科生
硫酸
斿
一盏
饱和
地雷
煶
胆敢
火锅
畜生
答话
倒下
经商
乐意
多样化
统统
虚弱
膝盖
对口
工兵
这本
宫墙
动脉
但愿
外企
污水
踪迹
伪军
精兵
西路
有事
少见
化妆品
借着
实实在在
商代
坐骑
名山
秋季
满腔
山间
模块
郎中
牡丹
文凭
领导者
顾虑
乳腺癌
道歉
有理
与否
不动声色
突变
自如
电视机
震荡
缘由
星级
曙光
温州
何应钦
股份公司
应变
动乱
接纳
迫击炮
算法
定额
虚拟
巨幅
梅超风
多元化
死活
族人
听话
石块
排放
源泉
招待
伤人
大豆
赵家
硬是
实话
羊毛
停战
枪声
琉璃
元世祖
不妙
孵化
钻石
时任
鼻孔
白布
静电
老天爷
长途
送往
身手
茅屋
遣使
制式
留守
会餐
指挥官
民生
碱性
三条
日方
张开
考卷
胡萝卜
右掌
新闻司
派别
几千年
一国两制
元老
宁远
若干个
平米
女真
理事
湘西
理睬
贫血
拍手
硬度
传真
折断
汪精卫
代号
电子商务
战火
情人
节点
不期
术语
新教
推断
切除
金石
迅猛
跃上
高分
捍卫
必不可少
隆起
淤泥
借贷
全区
领导权
掌法
公文
新郎
栏目
食盐
鐭
远远地
半日
铁路线
带给
觉悟
经脉
着力
天线
图画
小腹
技工
前部
劝阻
深情
葡萄酒
地被
彩画
同级
军政府
绝技
雄厚
西瓜
生物体
中央政府
有意思
教皇
牧场
着想
宽容
荒唐
屈服
刘伯承
王大夫
有功
花朵
周密
级差
黑海
贵宾
受益
变质岩
人情
水乡
主公
讲座
生性
主义者
东路
银杏
跳跃
潮水
冶炼
另行
化纤
天文学
男女
责任制
迁徙
奶粉
马力
投奔
羽毛球
财年
尽情
妓女
喧哗
放置
筋斗
路灯
九五
对敌
生产率
两部
样品
家园
平反
君臣
闪闪
擒拿
航速
赫然
方略
叶剑英
衡山
白万剑
海盗
造价
主机
底层
中星
轛
国道
卫国
缝隙
朴素
爱好者
妊娠
黎元洪
在建
单身
签证
滚动
独有
埃塞俄比亚
棍子
围住
天顺
事关
骮
第九
日内瓦
目瞪口呆
监禁
周到
权势
亲爱
毒素
电气化
穆罕默德
马夫
医学院
含糊
廉价
大街小巷
海运
高处
李家
陈设
避暑
灰尘
敏捷
不论是
翻过
盒子
私下
马其顿
一等奖
一节
脱手
浅水
白人
俗话说
三枚
人品
该是
贴金
羽毛
出产
庄家
鞋子
鉴别
主席台
兴致
市里
一万
少妇
阵势
进兵
黑衣
土著
欣慰
发泄
孝子
滨海
孙少平
细小
要点
沧海
素来
重工业
省市
英俊
入海
帝制
心跳
老总
多所
樼
殊死
游离
签约
发源
奥运
游击战争
损耗
嘉宾
绐
就医
救灾
苏区
榜样
剧作
运动会
认知
武修文
石家庄
隐形
开去
拇指
汉堡
回升
译成
下乡
领教
过人
气血
沸点
分手
螭
匆忙
奉天
短缺
师范大学
拖拉机
暴行
下一代
通讯员
街坊
李娜
杂种
惊恐
跨国公司
上衣
推销
东面
驯鹿
妥善
次之
圣经
旨意
肉类
颠倒
施加
探春
外貌
迎宾
西江
大公
东坡
装修
遗漏
丢失
马丁
楚国
内脏
狱中
欧阳克
采矿
疯子
联通
勶
呭
怀念
国门
孴
十倍
粉末
分行
堂堂
即日
神位
不可思议
铁木真
新婚
一阵子
进修
意境
鐐
舰载
打印
草甸
清初
专心
陈近南
低价
邮件
拨款
突尼斯
四种
名位
纳闷
高薪
良性
迷恋
三间
第一件
短短的
弊端
拉丁美洲
西直门
爱护
分会
两处
第八
裸露
张三丰
无情
大作
悲哀
关东
下楼
迈出
尼摩星
厚重
氨基
迷惑
乌鲁木齐
合营
零点
墠
飞奔
驻守
剩余价值率
综合征
干流
尼日利亚
不负
对峙
刚毅
宾客
臽
大丈夫
至高无上
前年
为此
公有制
中年人
指甲
金色
此书
亚细亚
逃亡
逃命
液晶
并列
油茶
区内
联姻
鑴
遗传学
动工
统治区
男生
终生
清洗
万多
更改
四圈
柑橘
卷起
欧亚大陆
奲
三通
零件
星球
上行
更何况
学子
容器
华丽
黄龙
即刻
废物
型式
扇子
金陵
大祸
屯田
孤儿
笼络
顽固
同位素
俄军
柴油机
季风
南美
石林
正经
残忍
轰动
交货
香气
探险
附加
喇叭
被叫
铁道部
淀粉
守军
妸
本意
敏锐
愕然
长廊
北段
寡妇
地道
明末清初
凤姐儿
引桥
文体
轰轰烈烈
船队
当兵
军情
视力
极致
无用
语系
几何学
弘扬
招标
方可
妥当
挥动
言行
金箔
兵法
成虫
要命
官人
阿尔及利亚
炒作
构筑
盗版
架设
得力
载荷
麻木
对联
两艘
千方百计
竞技
上乘
为难
登台
笔直
经书
马车
着陆
动向
一次性
身法
不留
拆开
坑道
限定
杯子
科索沃
伤员
工商局
洗礼
小屋
侮辱
屏障
见方
财政部
恩师
揭发
北端
萎缩
真菌
瓜子
祈祷
即时
太平天国
软弱
萤石
挽回
判官
摸索
田见秀
薛姨妈
围困
恭恭敬敬
不乏
该车
绝无
盘子
推力
意旨
强有力
京汉
答问
美容
复苏
要不是
贮存
报答
燕子
该机
建起
地产
诡异
成因
惧怕
人气
顾不得
连年
金字塔
优雅
亸
面容
一言不发
视角
萌芽
传销
中子
悗
副作用
左派
饭碗
祠堂
两派
陪伴
公款
第三产业
蹂躏
炉子
吉林省
电场
干吗
杂质
一两个
永恒
旋律
狂热
摆动
幓
直立
巴掌
茯苓
纪念品
保护区
流畅
几只
前日
滑稽
总得
白发
产妇
内乱
悬崖
园子
六十
搅拌
病死
胸脯
旋风
地段
五名
松软
夹击
侧重
刘翔
笑笑
现成
顷刻间
曝光
抒情
练兵
许世友
多月
大嫂
好些
院门
酿酒
富含
嗡嗡
四季
摩托车
奏疏
归结
合一
实地
六角
树脂
净化
弓箭
神州
重兵
急切
甘肃省
期货
世事
金黄
老朋友
六合
制备
骂人
迷人
福晋
携手
汛期
曲调
劲儿
家畜
林子
四分
扭曲
海港
栦
病房
社团
包机
历年
菱形
引力
尤伯杯
张飞
公理
阵亡
石灰
时空
拖延
获准
风化
货运
先期
知足
拥戴
辫子
虔诚
初一
叮嘱
峭壁
凶手
档次
按住
贫寒
中间体
行长
立项
机动性
速率
香山
民歌
制造商
烦躁
相机
淡淡的
纹饰
央视
戣
测验
停滞
麻布
数丈
公关
二分
叫化
压倒
啊哟
脸红
抢先
临安
门诊
朱子柳
适度
中国足协
五彩
导管
东征
自然而然
角逐
加油
值钱
石刻
哈萨克
分校
辣椒
迎战
阵营
定型
沉浸
激怒
话音
表哥
检举
大踏步
田径
强占
襄樊
铁链
血缘
路口
一瞥
怦怦
简易
考取
某人
器件
专注
军务
袁紫衣
上场
称谓
几点
某某
难忘
伤感
鍝
狭小
木匠
就读
深切
网球
迟迟
载重
头衔
冷漠
全权
入睡
意想不到
浮肿
贤弟
商朝
草场
婃
茶馆
小区
交汇
射门
兵士
洗澡
第一期
殿下
存放
出行
圆圈
柔和
禁忌
长辈
政法
控告
般地
解毒
十里
筹建
抗衡
机动车
凄凉
林木
人民网
狭义
宜兴
冲锋枪
独家
各异
贸然
源头
崇尚
丝绸
成排
储蓄
黑客
盗墓
堟
决不会
蒸汽
花色
岩洞
把头
打扰
终结
墓道
挑起
勇猛
跳动
增速
养猪
信封
原告
娴熟
考场
胡宗宪
校外
老头儿
簩
蓝小梅
多岁
移交
女工
杨柳
青藏高原
肥胖
七座
河网
美国国会
专任
孙少安
国务卿
皱纹
荒谬
讯息
成书
又惊又喜
横向
集装箱
横跨
黄花
电影院
头晕
威武
好久
研究会
哥伦比亚
歌唱
反弹
总计
梅子
创汇
胸中
油桐
无需
安危
黄安
可观
分局
贵人
兴盛
一阵阵
北欧
北极
大半
李贵妃
反驳
万名
亦可
东门
与众不同
茂密
垛口
战死
撇开
查明
十月革命
唯物主义
社会党
出差
不善
结交
国库
巍峨
苇席
大风
婊子
火候
蟠龙
胡涂
声学
店里
固执
城西
濆
备受
艰苦奋斗
外向型
相聚
过滤
总统府
触及
筹划
数月
军械
花纹
神经系统
嘉兴
平板
招架
蚯蚓
劻
史册
晶石
讲解
说明书
星光
骰子
出言
纯正
通风
唐一娜
生命力
追随
不予
澄清
献给
近海
英超
赵宏声
急促
交待
石柱
光纤
大营
威尼斯
家当
版权
招手
在座
带兵
湡
龙亭
误差
禀告
自言自语
组分
攻读
名师
明王朝
工业区
杜鹃
厅长
考查
身亡
地名
设定
中立
三十多年
第三卷
一个多月
合肥
死尸
远去
核电
心神
巫山
亲临
答题
不远处
未尝
工艺品
清脆
机组
满地
活活
编织
烈火
摸金校尉
幼儿园
反过来
中层
用兵
佛像
增发
国债
银两
巨响
美国空军
股指
并购
开挖
声息
泉州
学术界
忔
龙泉
文艺复兴
传记
粘膜
相符
折射
殿内
五届
北边
专职
风貌
失学
公益
共生
老年
天文学家
一季度
一大早
复仇
一遭
抽烟
执政府
海瑞
海区
诡计
纬度
腐朽
赶着
免除
常言道
威风凛凛
物力
尼罗河
国际法
司礼监
支部
男子汉
个子
红宝石
优劣
心肠
清亮
母本
热潮
几千
甜蜜
新政
后部
断绝
话语
丰厚
肯尼亚
阔叶林
农户
实为
编号
树叶
北路
疆域
原定
人头
求解
摊开
石兽
破碎
书信
不要紧
繬
竟敢
扬子江
马士英
图纸
教派
人权
领悟
苦头
拓跋
停顿
标准化
得不到
山林
热力学
洁白
观礼台
铺设
张贴
国号
博雅
发祥地
跟上
主战
作曲家
长虹
三招
身披
众星捧月
撤离
电磁波
米饭
全邦
撤出
大漠
愈发
看书
开启
繁茂
辨认
丛中
旁听
之二
天棚
传呼
下过
性状
丫鬟
南航
黄海
牛车
主动性
一般说来
短篇小说
西面
周旋
名列前茅
姐夫
出发点
跃出
生机
愭
戒严
铁锅
隋朝
星星
山川
杆菌
巨石
蓄积量
干事
足协
斗拱
废弃
大连市
碎片
浪漫主义
前门
法拉第
信息技术
历史学家
继承人
蚕豆
比拟
西便门
侦查
批发
园区
九五之尊
震天
台独
黯然
观望
液压
零食
辩护
五更
夺去
北风
呼延
何种
簬
论点
宪政
东长安街
军机
老衲
精湛
一记
乡试
新版
乘员
镇静
开花
中国移动
产出
小米
诗词
海产
稀饭
一通
败坏
出访
息息相关
箞
系主任
起火
那大
雪花
焚烧
赞美
年内
凝固
屏风
信赖
丰收
巴蜀
出租车
湖边
解救
繁体字
物件
史天雄
隐身
钀
性生活
觉察
当家作主
文化史
半殖民地
海战
矛头
靠着
和解
病例
帮手
影视
辈子
丹田
日出
牵连
心惊
两张
面面相觑
首级
拐杖
残留
掌柜
岩层
上扬
奔波
运载
及早
民警
人手
试飞
石灰岩
变故
肚里
飞行器
复旦大学
飞翔
定量
做起
换取
预感
生产关系
周二
进度
大船
商洛山
会儿
负有
对华
一盘
取经
田间
镶嵌
杀掉
在校生
记号
拜访
进屋
新文化运动
体型
弯腰
代主任
自古以来
离不开
大阪
八届
质子
感人
克拉
信息网
人行
理科
椾
小马
诱发
阿森纳
三世
分给
相待
冰箱
酋长
下院
飞来
絾
出资
通史
田福军
换成
横穿
上海证券交易所
纪要
麻雀
纵队
利比亚
练功
威望
新村
重返
新科状元
边陲
典雅
改用
助攻
剑术
无边
钦佩
村落
中国革命博物馆
前不久
汊
相隔
增援
狂风
和县
央行
旅店
波罗
流星
砖头
堕落
托马斯
泰来
连队
国安
大堆
夸大
亿万
长三角
櫘
被窝
说不清
列出
几十
界面
天坛
湗
周仲英
高职
尹克西
田园
白云
出嫁
音节
可说是
懂事
学业
千元
门扉
栫
刹那间
礼法
当众
罐头
举手
一班
线条
污染物
绿洲
印度教
发热
基部
杂剧
差额
五台山
黄帝
公路网
谈起
竖起
夜色
商学院
童话
排挤
诚意
鲨鱼
那双
疲倦
祖右社
普法
第二位
周期性
伯爵
骨髓
界线
紵
身处
大陆架
兄妹
真主
古籍
地委
撤军
肆无忌惮
业界
破败
银行券
墦
镇守
诚恳
打扫
大专学校
总指挥
晒太阳
两枚
城址
锁定
热气
宣德
傞
足迹
魔鬼
露面
波段
濒临
迅捷
炲
端正
大峡谷
不约而同
纲要
曼谷
极少数
高耸
沙河
数十个
盟军
第一代
真情
放电
形体
长篇
憔悴
疑虑
孔雀
中学生
讨伐
心怀
钻研
分治
找寻
疏忽
大城
老先生
红细胞
民心
忠于
祭祖
恩格斯
经由
谷子
巴格达
黄瓦飞
田震英
云盘
严整
探头
夺回
玲珑
机器人
全心全意
换届
分头
把手
双双
心境
可喜
拳脚
瞧不起
大体上
沉井
判定
比喻
麾下
居委会
梅林
衁
窟窿
眼角
构想
腐烂
养活
存有
侵害
扰乱
背诵
总工程师
断然
捐赠
探测器
市场化
教育厅
大堂
多多
点击
那段
推演
幸而
低沉
副总
球形
军火
硝烟
组委会
十九
出使
飞船
朱祁镇
上当
公路桥
架起
嫉妒
临走
销量
卢象升
辽阔
逃往
吭声
冷淡
锋利
当地人
重晶石
一两
阵线
瓶颈
难看
隋开皇
太小
加薪
题型
劳累
木质
救出
几内亚
超导
握手
洋行
第四次
上车
上岸
秦王
东吴
驻京办
升学率
配偶
退缩
破灭
老乡
欢呼声
好似
难堪
下发
作坊
亮丽
小牛
敬业
备战
天明
扑通
巡视
存心
南平
腰带
乳白色
大团结
失常
掌心
哆嗦
沟渠
机载
推崇
开元
正殿
瓦罐
水资源
民意
大拇指
冒犯
植树
偏向
盟国
昆仑山
喷发
璘
中国国民党
伸缩
追踪
胜败
尘土
郭药师
两日
赞助
许久
伯父
赵半山
有失
费力
照相
默然
合作社
好友
大雪
亲友
霸权
病虫害
墙角
肖鸿林
大胜
哎呀
师兄弟
汵
十余年
战功
冻结
本场
兴办
远方
政府部门
并用
喜庆
斯拉夫
鸣叫
眼珠
键盘
选取
忙活
饺子
火控
逐一
外交部新闻司
一个多
张家
时日
得天独厚
女队
开枪
邮编
应为
力道
拥抱
勤奋
游击
粘土
桌面
跌倒
首选
百倍
计策
桃园
唧唧
南洋
中线
降到
头盔
调集
分队
芝麻
宣战
软件工程
伍子胥
多处
让步
商家
看中
庇护
火热
航空港
俞莲舟
含笑
帀
白家
婚事
出游
开发商
粮草
民主党
十余
官儿
地方官
脏腑
轮回
北流
解题
管理层
不甘
誓死
军校
圆锥形
议长
旗号
多长
平凡
雇用
烧制
痛恨
北美洲
搬运
生物学家
进行曲
新闻界
天池
地质学
生计
义气
牌位
严惩
风筝
水泡
派出所
金碧辉煌
十三个
后续
多天
减产
辗转
鸡汤
一成不变
试管
茶杯
吉利
自考
才华
江东
基数
木牌
肾脏
星火
豹子
狡猾
耻辱
王宫
中指
唯恐
李白
馷
接任
责成
归公
交织
老爷子
佛塔
乘势
补助
大宗
屯兵
自然环境
汉城
由此可见
国民党中央
金丝猴
抵押
口吻
桥墩
马铃薯
赶走
森严
龙王
疫苗
华为
哈萨克斯坦
工作组
柜台
农用
张作霖
国力
雄性
葛洲坝
意向
大唐
周身
唱片
检阅
四海
矿业
河湖
矿区
第三名
该国
王安石
房产
出力
雕像
骤然
不休
装配
双向
忠义
头疼
一应
两口
徐寿辉
焦躁
债权
登极
早餐
知音
早点
闻讯
熄灭
松弛
农业区
赶路
裂缝
前殿
经纪人
果子
出马
虚实
冯玉祥
得胜
辟邪
花木
寝宫
断断续续
成年人
犵
租地
八五
洪涝
中国外交部
打招呼
医治
挣脱
游记
实情
绝顶
叶碧秋
杜仲
雷电
交出
遮住
土地革命战争
空隙
贴着
朱砂
来华
彩电
旅游者
更迭
火爆
指使
悠悠
低空
史实
台地
吴邦国
伴奏
饮用
环境保护
精制
推辞
征税
入川
奋勇
足足
数字化
哺乳动物
小提琴
限额
后劲
大路
后院
大门口
独具特色
社会化
王明
肖像
怠慢
戈壁
偏差
杂交
出炉
丑陋
清真寺
庭院
张嘴
织物
古文
抖动
辽宁队
试行
失落
覆盖率
进取
好手
升旗
因故
梦见
在意
朱熹
铸铁
题为
台海
尚且
车身
摧残
铁门
适龄
信徒
体裁
偶像
楼房
抚养
谋生
踪影
尹志平
古物
光缆
免不了
敌机
女尸
御林军
欑
扫荡
机型
咸阳
勇于
爆破
名气
证见
珠海
报价
面颊
增生
洞庭
走走
戒备
穿戴
炭火
闪过
鍟
两性
正比
全州
失眠
表皮
后任
商标
埋葬
稠密
谝
腺瘤
带电
经济型
声调
华国锋
县府
优胜
划定
卑鄙
空袭
尽管如此
天使
本轮
就任
剧作家
摄入
北齐
干系
光年
中常
孟子
斗志
装作
特约
荧光
尼泊尔
罗汝才
那场
难于
色泽
牙膏
八七
人世
合称
试剂
手榴弹
奇妙
生父
席位
库存
厅堂
衣食
华瑞
禁令
辩证法
根基
董必武
点子
使臣
光景
伊尔
招待所
两队
断代
母女
纸币
芙琳
农行
起因
应邀
一包
光盘
文泰来
电影节
简陋
体温
明史
烛光
作响
不得了
总值
空战
嗙
美方
做生意
经管
椤
战局
三星
巧克力
剰
儏
上路
犺
假冒
得失
平平
波音
足下
劣势
乙肝
元件
攻陷
劳役
隐私
独树一帜
专业化
屯子
幼稚
诉说
二十六年
笔墨
小镇
这样的话
陈毅
采茶
良机
皇陵
适量
耳目
毗邻
逼迫
其二
炮击
苍蝇
贴身
心爱
师资
军备
无心
有心
弄清
俱全
谁家
诬陷
执行官
租赁
顣
土坑
天监
骨折
艺术品
和谈
忙于
木棒
东林党
张口
翻阅
搜查
青铜器
奴隶主
集镇
只求
全程
无量
蜜蜂
大庆
外交官
重臣
药业
开关
辜负
汉书
堜
沿袭
子弟兵
空地
粈
田野
实时
羌族
郝摇旗
遗书
北山
普通人
马列主义
心事
开幕式
隐约
考入
有生
多子
矗立
螅
问话
尊号
结盟
参军
散射
早饭
天津队
水道
化学家
延期
拉动
原则上
多样性
增幅
讲学
站台
中南海
新药
毛笔
调度
恶意
高贵
阿尔巴尼亚
道场
一曲
讲授
顾不上
宗族
明月
社会制度
删除
教务
总参谋长
发酵
造化
战果
构思
生化
强国
强悍
活捉
修补
经济林
输给
日本政府
庙里
雪地
特委
南湘
纯洁
种姓
回合
理所当然
礼拜
工事
国宝
巨人
慈悲
商旅
尖叫
连成一片
政治学
清算
饥民
衰竭
单体
相持
误区
主宰
偏见
要道
阿弥陀佛
纳西族
长于
卵巢
集训
沸腾
跑道
劳动生产率
兴旺
西华
黑影
高山族
机械厂
敌我
微分方程
北伐军
腹泻
南京城
册立
金子
要钱
直系
上院
翰林
知识点
载入
床单
公爵
生理学
文中
健美
边沿
戏称
搜捕
精于
解放思想
技法
婏
意在
改正
婆娘
激化
葵花
宣武门
伤痕
鲤鱼
正德
筵席
孕育
枯水期
草本
丰富多彩
挣钱
云朵
神韵
犹太
路旁
发财
十名
辅佐
芳香
久久
中场
肃清
无所谓
不屑
军委
这帮
忌讳
录音
愈加
黑点
丢下
难当
改进型
拳法
作法
憎恨
分辨率
第二代
素养
硬盘
稿子
悲壮
磷矿
濇
商业银行
山羊
深海
泥鳅
政区
努尔哈
谋杀
首轮
种质
虎门
神通
非线性
半句
尊贵
给事中
县里
野味
亮点
知青
绕道
太行
不失
七十
樱桃
外债
亨特
稀疏
恐慌
桃源
体面
毕生
遗物
骗人
无论是
地盘
行至
高额
失地
发病率
史可法
坡度
热血
凳子
大碗
后天
招募
茶水
亚军
筛选
为的是
创伤
赏识
电缆
党委书记
盲人
金正日
皇子
纳税
三节
反恐
第一卷
小鬼
屈辱
启蒙
嬬
射箭
一并
王平
斟酌
农田水利
姨太太
文本
双打
妖怪
接连不断
冲虚
精妙
远洋
地表水
青竹
嗓音
棺椁
张国焘
慕名
女孩儿
神像
荒山
人道主义
海参
过日子
合葬
满载
耀武扬威
李云风
唱歌
放养
耶路撒冷
五角大楼
黄鳝
触动
许可证
技改
鞑靼
大衣
洪流
畜禽
井口
创刊
新任
悼念
海防
脸孔
本着
预备役
撕下
猴头
梁曙光
韩太太
监事会
青年人
高铁
有数
宗派
重叠
风云
会师
颐和园
邮票
李时珍
总分
坐定
轰击
按着
芝加哥
台基
年满
传言
炼制
有罪
夏玉莲
两极
行路
题词
锅炉
颤动
仰天
落差
难保
动不动
手电筒
扫地
嚑
鲜嫩
三百
熊掌
同声
单调
并存
熜
棉纱
一卷
身世
中堂
不凡
李子
文渊阁
上部
军种
国庆节
新闻网
一滴
意欲
贵阳
半路
获利
跳投
字符
不规则
五谷
好容易
声势浩大
婆子
第二炮兵
雄蕊
环岛
军心
人参
错落
内设
兵家必争之地
平民百姓
忎
冰凉
财税
击退
调味
蒸气
吵架
中行
登记日
督促
典章
一连串
绝非
竞相
马尾松
老将
情趣
发起人
化学工业
告状
颜洪烈
廉政
转眼
动物园
副职
刺杀
哈萨克族
流言
银河
何尝
职高
欙
成群
绝缘
西班牙人
二十一
业内
时数
评定
重现
发电机
客房
平整
垎
窒息
声名
亚平
化学反应
庣
时速
混淆
柱头
直觉
踉跄
山门
献帝
棉纺
吸附
水族
间断
沦陷
恍然大悟
两颗
湘云
受热
决断
当阳
入关
乘车
业主
名头
数理
冬瓜
开凿
皮质
万个
褢
吊脚楼
细嫩
远近
煽动
二十一条
长矛
禁军
袁时中
学艺
古田
魔头
正南
笑吟吟
夹杂
金黄色
几块
萝卜
调用
顶住
染色
兔子
往回
中流砥柱
氧化物
岭南
再见
传球
免于
相宜
编译
或多或少
网络游戏
第一台
果园
薄膜
裙子
迳
贝母
张义民
巴东
堂屋
巴比伦
隔开
无礼
甲骨文
负债
附着
连带
嘴边
卡拉
要不然
贵重
世界性
衍射
老前辈
挫败
成品
成色
喊叫
质感
李铁映
建华
学期
铁钉
迎娶
进犯
陆羽
宝物
残暴
害人
艰辛
乾坤
辨别
岩盐
周六
减退
蜰
朝野
短剑
短线
深谷
焦黄
棕色
暗算
义和团运动
国企
面皮
副官
眽
停步
三步
坚信
满身
置身
银针
政绩
实质性
气囊
可疑
文昌
受贿
棤
微型
老佛爷
都统
大件
丢掉
唯心主义
涉足
闯进
何用
台风
效用
凌空
九十
觉着
过时
党风
尘埃
婶子
嫌疑
贵州省
昭君
立功
应声
青蛙
粠
世代相传
炫耀
留有
补血
大麦
打动
于长江
雨季
布袋
穆念慈
患有
钓鱼岛
赍
战船
第三种
主将
卖出
圣彼得堡
得手
林黛玉
编导
众所周知
粗壮
山岭
放纵
严刑
辩证
可行性
水性
考官
点心
不朽
占优势
刻本
宪兵
稳健
赔款
膥
诸般
旗杆
伊犁
愪
好办
关押
打人
灰褐色
大巴山
笔试
衬衫
牧民
电能
茶庄
田福贤
英国议会
捉住
义勇军
炼油
存亡
物事
倾心
无缘
听觉
拨打
罪过
吹灯
晋代
气压
私有制
头颅
欣喜
沙俄
假日
大帅
军纪
周日
甲状腺
为政
半斤
君权
太阳系
扫雷
染发
氭
瘽
安全性
合影
失陷
临终
波斯湾
古时
咀嚼
钱财
建筑师
迟到
文学史
替补
胃口
雷声
波浪
党政军
拔剑
两组
各门
菏泽
万世
款项
焚毁
跳舞
负荷
连日
告诫
散步
硅谷
副将
拉根尼
白嫩
鱿鱼
劳力
仿照
情不自禁
乐曲
乒乓球
取材
近代史
枢密院
遵照
逍遥
讲习
制糖
彼得
刘絮云
同盟会
帆船
姓氏
长阳
过量
后门
其内
凝结
不愧
澳门特别行政区
刻意
意料之外
受损
英寸
赤字
无赖
一如
圪节
武大
总动员
贡品
平壤
微妙
热带雨林
假若
何心隐
如实
榴弹炮
百货
艺术类
十次
击溃
走入
枪弹
镞
网吧
铁掌
非农业
政工
鼓动
中大
阳性
左腿
影像
黑格尔
冷水
险要
军容
多种多样
换句话说
余脉
温馨
金莲
象牙
关照
升任
前哨
处方
窗子
用到
连任
悄声
悄然
传教士
奸贼
忍心
去路
联结
白银
突起
文化教育
成名
卢布
放宽
抗病
五丈
到期
红楼梦
水军
流速
棋子
搜寻
换来
炉火
嬮
破解
二十七日
威名
入库
蔗糖
每每
晴雯
风力
铁路桥
环流
富强
蓝图
证券报
去取
自由主义
筽
宣传部
方解石
走开
辏
养牛
曲子
上风
潜心
降雨量
哈里
开水
褠
挺身而出
平方厘米
乌桕
隐秘
冲锋
新颖
预示
人民政协
术后
情调
用材林
跳水
克罗地亚
火柴
歌词
吕布
卷入
抗震救灾
唾沫
徐霞客
屡次
巴拿马
木盒
冒充
桥下
畅通
且慢
铁青
网点
体贴
东州
丫环
伪造
殷勤
笑意
其子
聚焦
哀求
武警部队
幽灵
宪宗
熔岩
接壤
直观
笢
管事
后台
午后
呼吸道
期刊
綔
灾民
复原
并称
医务
迪斯尼
金庸
挑衅
枃
注明
朱厚照
右腿
一着
原文
代为
驱赶
送礼
深水
熻
引信
蜂蜜
第九届
床边
首发
数里
回落
回扣
疾驰
了结
关外
遗嘱
第一章
产业资本
万头
伯母
棩
六届
停泊
汹涌
待定
吓坏
湖中
第十届
体外
中西
第三章
餐饮
眼睁睁
灵敏
明智
炮台
计划经济
经济基础
防腐剂
核算
李四光
倒地
埋藏
打中
风雪
扣除
刘体纯
用地
头颈
妄想
信用卡
自制
扁平
机上
寻觅
三王
出具
三道
身价
出奇
取缔
约会
不须
解说
左脚
冲洗
三门
新路
登场
巨型
两幅
哮喘
油价
岳家
晚清
古人类
皬
第二种
奥妙
过硬
针灸
福康安
汇入
火腿肠
血浆
一定量
上船
秦安
秦腔
鼓声
好奇心
股份制
肃立
金钱豹
只用
延误
惨白
帷幕
河岸
一桩
周一
大官
大头
绚丽
祝福
资财
会址
仕途
撶
磷肥
加害
旁观
名著
攻下
陈旧
矮子
矮小
截断
漫步
拱形
编码
炼丹
严正
罢休
横行
发音
保养
铅笔
录取率
惊心动魄
吴仪
滋生
治愈
废话
军衔
鲁智深
融化
石雕
静默
大牌
外力
旧制
北冰洋
位子
前导
简洁
混杂
平缓
游子
迫于
内侧
酒吧
向导
归国
秘诀
救治
口服
年幼
良药
岋
口语
錧
府上
沉香
特大
剧情
强弱
坦然
分出
正视
所作所为
男朋友
马鞍山
公事
一瓶
异性
每秒
抢夺
卧薪尝胆
审视
草木
沉静
生死存亡
简明
反常
火速
执教
作曲
复线
复发
民法
堵住
贝壳
团员
河湾
战胜国
扑灭
成败
未及
既定
号角
编组
效能
山势
棋手
鲥鱼
斯密
出生率
五道
几道
架桥
狐狸
渡河
终极
京西
巧遇
一帮
借用
大观
蚂蚁
静悄悄
磁带
手表
打鼓
懒得
会意
宠爱
止住
胡须
几分钟
高昂
骚动
外加
出乎
定制
拼音
运输量
中共中央政治局
起降
余处
不在话下
河里
委托人
威慑
老伴
猎人
鎭
好几
股数
衣着
客机
会审
颂扬
狭长
庄园
椭圆
核动力
武装部队
增量
堡垒
要塞
影壁
归侨
出奇制胜
老龄
部将
贴近
胆固醇
集资
受体
吃掉
黄一彪
详尽
唐贞观
孔道
军委会
崄
惶恐
吐露
粽子
径自
信托
下场
于城邦
四门
茶几
显而易见
姩
恳求
跨国
乱砍
肥大
致癌
刻苦
见见
蟮
募捐
平起平坐
顺势
鼎立
惊惶
积水
学家
日程
黄豆
金光
确诊
凉拌
新近
杠杆
议定
渔网
奴仆
打法
蝌蚪
自负
迷宫
清单
皮肉
含蓄
繁盛
叫喊
搀扶
第二级
撒谎
如意
此种
征战
此法
证件
报社
脸面
争辩
第三纪
爹娘
你老
票据
服务员
骗子
停当
品尝
二十多年
一清二楚
幕府
实习生
两晋
湿度
祈求
顾忌
热忱
分管
遗忘
风浪
专电
混合物
执意
情欲
铜器
猛攻
浙东
蒸汽机
积聚
全集
联谊
小桂子
省内外
出没
出头
各型
霹雳
牱
依稀
十几
一周年
叔父
神智
出版物
熔铸
失声
预案
几百
谢家
商周
许许多多
大院
打探
发脾气
家产
下沉
象山
王长顺
经文
缓步
青衣
江流
鲜有
警报
公安部
发射器
牌照
遗存
侵袭
长山
刘家
陨石
超前
正气
毫升
锡伯族
风景线
威廉
间隙
纸条
畲族
化验
衍生
溃疡
庐江
呜咽
外祖母
罗斯福
涗
从头
披上
清明
天性
习惯于
三只
装甲师
师大
飞架
既然如此
凭证
安定门
建安
水解
所到之处
血清
流放
再创
引来
孙婆婆
两用
汽油
装束
河东
核实
马里
老伯
江醉章
丁汝昌
车长
怜悯
皮毛
止血
永和
从属
劳工
仿效
想念
执政党
重担
龙宫
三叉
偏南
高超
逃生
石灰石
串珠
公孙止
飞快
钓鱼
年后
上铺
侵华
体形
翻滚
背鳍
陈富忠
核查
蔡元培
吃喝
乌鸦
从严
国事
交接
颁奖
周瑜
确信
二七
估价
膀胱
教练机
说到底
专场
宫阙
竹林
磨制
功勋
骇然
射手
岛主
毋宁
陌生人
重演
沐浴
游玩
批示
棍棒
智商
潜入
销毁
出其不意
漆树
走兽
包扎
划归
绠
北周
无数次
订购
日光
老婆子
灵感
点点
只当
策动
求见
失守
应酬
忠臣
典范
岗哨
独联体
颈部
前头
袈裟
牧区
农牧业
卷烟
发誓
仿制
谢烟客
成像
血流
吞并
飞身
蛋糕
体弱
好喝
珍宝
架构
醒悟
安庆
傲慢
惨败
革命战争
世界观
九曲
情操
衣物
李汉俊
洛桑
棶
恋人
内务
柳如玉
铜牌
谢富治
非得
五种
蝙蝠
大奖赛
东道
南宁
水雷
采花
烘烤
近处
配有
头骨
典籍
丁春秋
年限
仁义
张海丽
后金
渗出
阴沉
肩负
弹道
亚里士多德
红眼
布雷
汲取
店小二
漫画
拓宽
患病
农夫
领事
加倍
克隆
九阴真经
海岛
木棍
叹气
塑性
猖獗
不敢当
奏章
胡椒
录像
宣统
马到成功
探究
无机
上调
钞票
刚果
数组
挨着
延津
一村
二十四
喘气
施琅
趣味
逗留
味儿
册封
前端
晶体管
火花
晚报
委托书
指控
缰绳
齐国
斯里兰卡
实例
打井
偏僻
杀戮
杆子
骚乱
溂
武备
放慢
暗道
水体
夏威夷
大洋洲
余万元
鱼翅
侍女
上天
司法部
入门
大修
后头
商定
时人
行辕
谈不上
渡口
断言
知名度
提炼
外公
暖流
冲散
铜矿
轮胎
备有
刘华清
凤凰山
扬言
李岚清
醇厚
俺们
迄今为止
太宗
门将
编印
牢房
喧嚣
放肆
东非
张罗
白俄罗斯
相比之下
吻合
歇息
保罗
交互
蜘蛛
喀什
肉丝
行政部门
当头
淙淙
军训
石英砂
售价
异样
世锦赛
诺基亚
古文化
后背
群山
字型
忧郁
红海
承办
不知所措
计委
熠熠
爽口
本期
胆怯
旌旗
徐徐
空降兵
碰见
面对面
谷六仙
迷迷糊糊
普通话
交响乐团
两把
篮子
鱼头
光照
数招
南山
运到
八中
好听
关内
色情
瓶子
撴
老道
厂房
呮
历法
固守
人工湖
小摊
含意
现代人
尾部
达西
晶莹
凑巧
制取
顺从
民主人士
定性
标识
千百年
原址
第二节
肚皮
选派
三局
郎君
心血管
不畏
轻蔑
孙玉亭
高雅
下回分解
血迹
布拉格
有别
红火
冯公公
后市
研究室
醴陵
侨眷
哼哼
挨打
闻名中外
土族
敲门
坦诚
射电
架上
忌惮
中国大学
面团
拉扯
肝炎
庆贺
漫游
个性化
不以为然
裂纹
上床
餢
死囚
鍧
文坛
钻入
过不去
岳夫人
司空
革命党
钢板
稳固
汤若望
女神
霎时间
殖民主义
喝彩
微分
微米
土城
整车
当务之急
去向
于二龙
初等教育
披甲
喉头
奇珍
造反派
满面
活佛
乡土气息
凡事
暂行
暖和
严酷
做官
深渊
华沙
琚
万多公里
漂浮
传教
复杂性
运输线
决议案
工贸
冬至
恭喜
大鲵
各家各户
浅层
刘姥姥
民建
袁绍
陵区
全球性
厂里
航天器
郡县制
四十年
三点
高坡
强者
僵硬
自然灾害
惊叹
老太爷
起先
放在眼里
爱国者
放疗
通州
翻开
水洞
陆路
十道
头号
分娩
孙夫人
开明
说错
蒸笼
日本自卫队
文化部
极小
灵活性
半边
打通
宙斯
抑郁
四角
胡风
痛心
贫道
计议
溥仪
邓有米
跌落
振臂
蠕动
林平之
外籍
南边
中能
碑亭
炮轰
宪章
迁居
留神
更深
转弯
钑
常青
附件
爬行
女童
分泌物
毫不犹豫
白旗
河畔
沉积物
熼
充电
等价
三下
个儿
满心
临界
车轮
星期天
事前
银奖
底面
子叶
陈潭秋
胜仗
中阳
属实
五峰
叙事
器具
皵
国语
依山傍水
快船
吃酒
限期
乘着
老化
袜子
妗
大好
极富
八宝
最后通牒
渗入
风度
京都
万事
迫不及待
结为
王兆国
复明
土块
早些
原子能
领略
诱导
惟恐
松开
同门
字头
胆小
取决于
编程
出海
思虑
难忍
纵向
张家口
飞速
一站
帘子
五门
葡萄牙人
对岸
国家旅游局
难点
如林
摊子
礼品
累积
电阻
南昌起义
一寸
约旦
傻瓜
无言
科教
襄樊市
在乎
筹集
富豪
声望
特殊教育
殷正茂
第二章
人民武装
领队
太重
小张
台前
北京地区
战法
满头
沙包
剩余产品
榘
出家
景物
嬭
王昭君
牛马
气力
生产量
垂帘听政
冲杀
分期
喝水
大娘
摄氏度
痉挛
时髦
打猎
电子邮件
电动机
苏鲁克
地空导弹
开胃
神灵
独立性
招致
黎巴嫩
摸摸
中枢神经
袁宗第
游戏机
转增
警觉
主队
俔
机车
内蒙古自治区
全队
李闯王
出栏
太史
油气
太保
有钱有势
修习
上岗
捷克斯洛伐克
入主
紫文道
颠覆
真经
对阵
可言
用油
引得
宝宝
边际
玹
拔牙
三院
公孙
无常
古罗马
士卒
万吨级
懡
纺纱
完婚
天文台
维新
奢侈品
激荡
红糖
承袭
乙烯
表扬
表妹
投靠
知情
牛筋
诱人
钢厂
敬仰
达摩
合十
所为
殷梨亭
算盘
裂变
狂奔
庙宇
山墙
近现代
大通道
调遣
杰作
餐桌
订单
不问
炒面
回乡
不计其数
衰变
庆幸
无益
帻
补救
款待
浸泡
粰
盛名
明太祖
平底
潜伏
美妙
随同
美观
白果
游荡
安全局
打成
演示
穿透
恐龙
第一家
区区
崚
长条形
出新
洟
需求量
烟火
南纬
臭豆腐
黄原
景致
并发症
平素
开时
不管怎样
钾长石
装卸
显微镜
兴山
应选
破烂
倒塌
夕阳
竟陵
周家
银河系
惬意
凶狠
盛会
禽流感
片刻间
赛前
舒畅
亿年
南水北调
丧事
勤务
传导
佣工
等价物
第四纪
出钱
方以智
长堤
一丈
寄养
苏宁
斾
党支部
闪身
潮汐
倔强
偌大
回转
回鹘
据称
宝藏
伞兵
死里逃生
特赦
老娘
老李
几处
脊髓
付给
意料
寓意
登陆舰
县域
痛楚
教书
科普
到头来
契机
一天到晚
江城
陷害
初始
防腐
控诉
凯旋
要旨
星夜
隔绝
定下
五天
鲇鱼
九章
中国共产党中央委员会
一夜间
浮动
有机物
亿多元
撒拉族
破土动工
江段
次要
实权
英美
幇
蹲下
路程
听候
绅士
保和殿
灶台
歼击机
清静
向忠发
逐出
郭中姚
办公楼
发愁
发自
扭头
苏门羚
韵律
转达
樊一翁
电工
屡屡
兼容
高家
护法
睡梦
捕获
自由化
墨鱼
奥斯曼帝国
各司其职
纯白
倾覆
纤夫
佛罗伦萨
蹄子
过关
地基
可望
约莫
棱形
正副
简史
青草
年老
西装
训练团
概貌
极点
更替
打伤
前程
心地
炸毁
上万元
万斤
马场
人民共和国
散货
先例
安哥拉
卷宗
太郎
敬畏
紧缩
三件
成天
展望
真切
军装
克林顿
出缺
栨
放行
繁殖力
一款
银元
事事
一拥而上
插手
芭蕾
麻痹
士大夫
翡翠
可取
退位
卫冕
河沟
此起彼伏
紑
文史
楚文化
书店
三十六
诗句
补选
减免
译本
元气
三部曲
京族
永固
棕黄色
音乐厅
刘芳亮
铜钱
县令
整风运动
躲开
第二卷
观察员
自居
七届
变色
背包
实惠
手忙脚乱
性别比
五座
拼搏
便当
献身
范文程
千亩
子房
奋战
吉普车
不祥
古董
装载
两场
米芾
鱼尾
八十年代
中西部
半封闭
加勒比海
快捷
违纪
远古
疏松
报表
锣鼓
祭司
毛冠鹿
评判
正午
合葬墓
中国工农红军
估算
陈云
光彩夺目
京山
万户
招牌
我心
历次
李为民
中美洲
外衣
戴尔
拥入
取向
爽快
兵权
金鲁生
桐柏山
镏
馐
编入
两三个
熟知
网址
珊瑚礁
挖出
远距离
地坛
谋反
发生地
配殿
深层
国贼
英亩
买者
蚊子
宅子
少不了
因特网
蜜枣
塔吉克族
高利贷
勩
反叛
而今
衰亡
教法
绰号
两样
莎士比亚
俅
监事
求情
品格
演绎
效忠
枪杀
插图
白纸
定时
帖子
升至
美术馆
多公里
陡壁
核弹头
用功
挤出
大熊猫
徭役
分付
审计署
宝马
买来
矿物质
行刑
有史以来
李永波
文化层
好端端
宗人府
草坪
家庙
肠道
宫内
抗日民族统一战线
棘手
互补
磨损
紫外线
婚后
德行
耗资
加息
九宫山
动能
金山
低廉
姑苏
封建主义
抱拳
土地改革
转折点
仡佬族
松散
怜惜
家里人
出品
定名
附中
葡萄糖
武昌鱼
千卡
孙传庭
考前
测绘
履带
中建
种群
农民起义
二十二年
挤压
真话
礼服
船舱
施政
儿媳
行刺
火堆
有色
驴子
猎物
二龙
棚里
大增
谦虚
多边
检讨
肛门
转机
总成
声援
方城
指路
排灌
报警
胰岛素
外经贸
肮脏
绿松石
导体
第一分
血色
呼喝
私自
银川
支行
头皮
肉质
审判权
虎山
空姐
港湾
犁头
雌雄
亲政
反倾销
藏书
教员
权分立
杂草丛生
自转
宽敞
英雄好汉
可恶
亲情
盯住
三万
煡
郑成功
渲染
强敌
奇才
产销率
折扇
惊疑
唐太宗
刷刷
江浙
宇航员
两对
各条
遥感
全天
逆转
岂非
胡自皋
光临
郊外
新春
书桌
吊舱
诚实
回味无穷
二环
花山
风向
阿昌族
清凉
咸蛋
火电站
鏌
六路
民盟
数千年
陷落
乳腺
郑家
工信处
睙
本校
嗛
最高点
词语
反省
山影
菜汤
眼界
陪审员
供电
与会者
辐射量
党章
结合部
装扮
花儿
失传
萧条
极地
后魏
牵涉
全军覆没
简便
低估
转战
四散
访华
按说
金刚石
慷慨激昂
绕城
药物学
明朗
小山
坦率
不知去向
中山路
金元宝
侀
凤山
沙湾
徐家
工程局
编修
甲午战争
荷枪实弹
龙船
何苦
银票
求救
活生生
气恼
吸入
覆灭
祥和
唱名
阅历
急救
铁甲
新桥
大喊
后生
极目
巡视员
查阅
后主
武英殿
儒学
女兵
娃娃鱼
告终
巡航
单向
复印件
整风
天宇
熊猫
数十万
汇编
妓院
字眼
油菜
贪官
飞刀
化妆
摄氏
通宵
任意球
私利
不详
用电量
解围
嚣张气焰
苏打
蕲春
耶律大石
文职
欣然
独具一格
公交
顽固派
倒转
兴高采烈
西宁
老挝
缺失
屋内
商船
几十斤
麦加
外校
沉寂
落得
螾
明文
万台
涉外
使用者
斑竹
奸臣
王莽
方圆
劳作
邪恶
怨恨
毙命
台站
国美
本分
杀毒
生来
相异
下垂
沧州
鞯
音响
丝绸之路
反对派
红卫兵
在城镇
送走
人代会
真假
议政
性病
佛经
认输
点火
恶毒
电子战
叫好
住所
煤气
决非
新兵
无理
西北地区
排成
钟声
大乘
出人意料
火箭炮
旀
张家湾
哨兵
感知
堢
板凳
顶级
继任
胡人
吴应熊
发怒
督查
好坏
取暖
青葱
水产业
霸主
扁圆形
教养
语言学
实德
墩台
强硬
湘北
使馆区
欧亚
特技
东至
模特
诞辰
种植业
操场
古墓群
新陈代谢
硝酸
光源
领导人员
大叔
大内
齿轮
旧闻
管教
徐海东
青海省
沈国放
马蹄声
鍩
嘈杂
交响曲
杬
高高的
松滋
兵火
乔治
斑斑
失手
第一线
惊诧
社交
出山
不自禁
长寿
鸽子
测评
鄙薄
旅途
亿千瓦时
秦基伟
战略性
古诗
鞈
肉鸡
市县
各色
幽幽
京九铁路
石棉
吴淞口
预见
老兵
二门
敷衍
来京
此项
爱国人士
为啥
椰子
筹措
竖立
单薄
分子式
试射
载人
欠缺
侯方域
发难
思绪
小品
电站
碾子
拉古
不可一世
该项
传染
养鸡场
托福
一把手
东安门
楠竹
亚科
血统
封口
相间
九尺
苏北
规程
人类学
僧侣
触角
纪委
波及
可信
寒气
堂上
退后
吃亏
多出
价值量
钱塘江
伴侣
一尺
温热
鸟儿
大杨树
少有
混蛋
枣阳
外电
布尔
蒽醌
欺凌
马道
人声
孟浩然
惨遭
陶醉
领到
几张
透出
青木
主任委员
陆军大学
机智
松花
所部
细作
下巴
求和
茶树
接入
绵羊
远眺
充军
白带
基本工资
闭幕
峰峰
翂
统制
纪年
三声
丰满
北城
东宫
神经元
楚庄王
王者
休克
安稳
自由自在
破绽
规章制度
回游
两广
辽河
湿热
文工团
财团
牧师
撤回
冰山
文学家
秒钟
幼时
通城
举世闻名
专程
西门子
粡
印度人
热泪盈眶
毁灭性
猇
豆类
收录
谷底
韦香主
外层
漆器
放牧
朝鲜战争
隆隆
局限性
上旬
中华书局
一动
东西方
认错
滋补品
以备
分区
西陵
尝尝
交警
长满
导引
旧城
药膳
储藏量
竹园
家家
付款
嘉庆
开战
竹山
民办教师
致病
无影无踪
该院
根本性
随行
我市
先帝
梁子湖
小史
悲观
北伐战争
遵从
大使馆
成亲
捣乱
偏要
粪便
闯入
鼎盛
前任
该科
豪强
编排
指指
侍从
启程
果蔬
文教卫生
峣
新婚燕尔
耕作业
朱光亚
选料
购置
中医药大学
三民主义
分枝
延庆
军力
共用
一章
陈政委
说不得
盘中
热呼呼
凄然
多达
凶恶
毒气
棺木
递减
卖掉
参展
散开
荷兰人
贞观
峁
何鲁丽
汉英
光合作用
鳜鱼
抱负
施用量
高一
陡峭
细微
永新
永福
饮誉
粗细
最重
铁证
第四章
芰
曲酒
失衡
利物浦
鼓掌
氳
肾上腺
配色
牛头山
体能
配制
魔王
橡树
矿产地
陈世美
主旋律
巧合
文汇
全盘
甲醚
童装
朝鲜人
玩意儿
西口
痊愈
略微
祝愿
截住
晨报
墓穴
抗美援朝
第一座
小石桥
招式
投掷
绌
残废
客货轮
倏地
语种
创下
二里头
加速器
动词
胡杨林
砂岩
捕获量
抽搐
悬念
阿拉
江底
微不足道
十五道
篇幅
农家乐
燕京大学
李如松
欧拉
特派员
华容
附和
实德队
得体
送入
余叔岩
贱人
不均
福星
朝鲜半岛
丁卯
名曰
乱七八糟
斯洛伐克
数百年
吴香香
道姑
西非
枝叶
扇形
大厨
书城
呼应
糖果
文昌市
大腿
恭候
铃声
盐酸
二氯
恍惚
样本
期满
无名
育种
鼻涕
仙女
鲍春来
结尾
作对
否决
必要条件
比试
太公
土台子
太极
温家宝
印记
皇太子
语句
产业园
櫙
消亡
取笑
地球化学
阿姨
梯度
塑像
界定
围城
唐宋
杀出
逃离
齹
避寒
托人
鲌
一月份
雕栏
放屁
挂牌
原来如此
五县
鬼神
朱邦造
原产
緢
次序
父女
中土
囚禁
古镇
硅灰石
回廊
星际
松花江
叛变
浮现
默契
柳大华
多期
多变
生活资料
引诱
尹吉甫
情意
尖端
质点
教诲
学分
未了
太尉
王树声
疄
皮日休
酒席
天神
老二
教士
泥灰岩
超额
肥皂
湘军
外事委员会
月均
昏暗
多功能
铁器
宏达
吓唬
上阵
东莞
中统
必胜
照相机
吴楚
欧共体
搬迁
能耐
颜料
攸县
女友
省籍
粳稻
绱
即令
汪洋
举例
倒闭
汶川
温饱
闲着
基本建设
后湖
冲天
递交
家丁
明器
大洪山
櫧
德语
庵堂
新字
抽调
此行
节能
怡悦
电饭煲
停产
扬起
僵局
丹麦队
联苯
百亿元
惩治
要冲
第一面
放逐
严加
十二五
法律委员会
洪凌波
水草
黄骅
引着
对内
堵截
圈套
两门
按捺不住
针叶林
式样
安葬
名闻遐迩
多瑙河
评级
查理
太行山
情怀
杨建华
有所作为
牙口
红安
国宾
杨大哥
几百斤
医保
董家
先于
大兴安岭
全家福
天安
接上
艺术节
折扣
包银
规划师
经济带
第一节
王任重
包金
救护
夫人道
烤鱼
风沙
南港
何方
甜菜
齐达内
奇观
楼阁
引出
母体
退兵
水肿
辍学率
分担
公人
不无
有幸
一缕
颁行
分属
石龙
防火
企盼
维和
伦比
水源地
群落
卖国求荣
觅食
人杰地灵
上议院
加装
不失为
俨然
花木兰
名望
丹江口市
致电
骨架
认识论
薪资
接轨
金俊武
申包胥
外婆
武汉队
陆冠英
畅达
洞窟
出世
楃
莼菜
山庄
启德
三峡大坝
烤鸡
常遇春
受访者
印证
航天飞机
名士
跨过
保荐
横沟
福气
幽深
利刃
买买提
彩印
饴糖
湖北省委
绝招
举出
排练
冷落
尯
邯郸
倒好
留情
大象
博得
前天
安顿
藻类
简短
救亡运动
许嘉璐
出家人
富水
区委
惦记
晚餐
郢州
宜黄
猛禽
发票
直管
饔
转载
汉朝
师师
冒烟
沙子
誓言
席卷
妇科
树丛
工农兵
傻蛋
调蓄
标签
受害者
纯净
辩解
采伐量
糯米粉
抗辐射
十八日
自旋
驿站
华中地区
退让
超音速
有意识
朝臣
五中
互为
轰然
铜镜
整日
复活
成文
人种
别扭
高新区
列位
纷争
沙特阿拉伯
西方人
长阳土家族自治县
抱歉
归州
大红门
江海
研讨班
葬礼
鸱吻
成方
融洽
皇岗
冰期
任凭
他杀
放进
放流
耳机
毕升
声波
标的
北湖
卢森堡
郧县
外国语
送回
白玉兰
石榴石
哇哇
安内
试用期
火箭弹
眰
论著
供应商
头球
租金
纸张
军工
割断
双桥
公案
思量
一桌
推选
嗅觉
老马
甄志丙
探望
温室
新洲
周五
缺席
奥斯卡
聘用
丽江
打响
上身
任免权
五项
难关
生态学
平方
涉嫌
拦河坝
喝采
思科
手指头
信息产业部
马口
汤化龙
空投
白洋
渐近
赋役
游历
立陶宛
分封
史方
流动性
读物
域名
第一峰
主料
乏力
高能
第一条
集散
古琴台
音像
杨维
便秘
南漳
滑雪
春风
刘志军
殆尽
炒锅
盐度
不懈
伊利
分部
京九线
卫校
阅卷
秭归县
入伍
共同体
日本国会
还给
精魂
阵前
大寨
大湾
评议
繘
七日
第三天
霸王
雅虎
因果
无能为力
焊接
玉女
教众
太阳年
人流
错觉
阁楼
司马义
划一
领头
腹痛
如愿
奋发进取
抗逆性
贪图
报知
冲积
莫过于
陈锡联
刺伤
三等
微软公司
遥控
血型
嫳
一九六二年
摇手
高速公路网
上品
张扬
曲面
明玉珍
变废为宝
日落
干重
彭真
黄永胜
认购
可怖
简体字
鲶鱼
驱使
路甬祥
铺筑
毁坏
英山
掌上
泰州
无尽
新奇
渔船
八字
午餐
半部
梯子
级数
半头
切块
篇章
连环
红莲
京广
浦东
器材厂
散水
婄
欺诈
两个凡是
石膏矿
小林
草泥马
城东
经络
主教
罗家
空洞
谬误
自给自足
惩办
鲩
喜讯
龙乐豪
新颜
南郊
涢
伏明霞
织布
巴西队
鱼汛
三顾茅庐
闅
虾子
赐予
浇注
豫西南
姜恩柱
商用
二郎庙
动植物园
百花园
电网
枝江
鹤峰
匣子
知己
固城
资质
季风性
守备
运往
宽松
择优
合兴
莱比锡
乳头
见闻
穿行
老河口市
千吨级
河鱼
下放
汤用彤
鄂皖
星座
修正主义
虚伪
俞正声
候补
邰丽华
调皮
学海
储油构造
近郊
收下
公安部队
操持
宣誓
聂海胜
古山
田秉毅
别有风味
玩耍
通山县
驾车
纪念日
气球
立案
凝聚力
黄土高原
方面军
运载火箭
荆沙市
簯
雌性
乡政府
轴瓦
兴山县
曾宪梓
来势
多胎
奔赴
外甥
江南西
判刑
缠绕
下功夫
香辣
多万平方米
任新民
攻坚
里程碑
丹江口水库
红安县
敬意
庤
悉尼
准许
盖茨
预警机
复查
本色
三鲜
媚外
手下人
百头
捉拿
中国证监会
大冶市
猜疑
盗贼
广度
氧吧
袁宏道
同居
梅雨期
科威特
突破口
三子
挂念
英山县
北斗
原意
高喊
引见
中止
春游
炒制
论语
玩家
余平方米
追兵
触犯
融为一体
游击战
回锅
当官
无条件
老同志
探听
商贾
曲艺
撬棍
念道
第三届
清白
王亚南
瓦工
反面
印度河
谷城县
小白菜
宗朱厚
整洁
端坐
布鲁塞尔
巴东县
回老家
金锣
水利工程
自律
青色
羽毛扇
保康县
河势
僵化
照亮
江道
厉无畏
盖子
戯
燃油
武穴市
官位
何椿霖
襄渝铁路
刀工
东盟
车票
日语
两口子
脑筋
集市
谭嗣同
嫘祖
崎岖
周逸群
佛山
多吉才让
麻醉
辣椒酱
胡春华
煤田
冲刺
联邦院
堰口
公办
叛军
气节
几根
北京市政协
鉴定会
钟子期
这就是说
幼儿
亲口
当阳市
邻邦
杜审言
澳洲
万镑
招来
共同纲领
广布政
耸立
寻访
万民
油砂
结核
卓著
玛瑙
鄂豫陕
被评
王承恩
加筑
峞
王英凡
自已
闭目
基准
骨肉
六期
直指
高法
强壮
密密麻麻
永久性
捣毁
月刊
下颌
洋溢
突如其来
庙街
枣阳市
二十五
竹山县
东风汽车公司
改动
委婉
纺织厂
黄明生
生长量
干贝
无暇
检察员
星罗棋布
四十五里
化身
真味
麻糖
插口
越王勾
分外
如其
飞去
小女孩
诅咒
月湖
爵士
副教授
蒸馏
提包
透明度
余亩
鲜品
猎头
户外
宗庙
贡茶
古隆中
只此一家
动画
土耳其人
开垦
傅志寰
芜湖
嘶哑
顶多
洗脸
吉佩定
单兵
刮水器
氨化
牢记
发疯
接待日
莲肉
自尊
奥秘
初衷
造像
备考
募款
沙鱼
氽
杨守敬
奠基人
下棋
赖以
任性
自动步枪
曹化淳
洋务
五峰土家族自治县
和丰
迟缓
乌鱼
上校
九线
深造
干面
罪人
胭脂
和平共处
云梦县
保康
用具
她家
斥责
周继红
文峰
沙口
砖瓦
执法权
河头
远安县
园林式
好莱坞
现身
丁石孙
社会保障
实效
蕲春县
一扇
弄堂
花粉
花灯
襄渝线
新沙
西天
利亚
花菇
利器
周全
应城市
吴国伦
黄陂区
阳新县
夸奖
刘大响
药库
刘醒龙
黄土岗
魁梧
国务院令
郃
葛洲坝水电站
素材
郑功成
夏斗寅
朱丽兰
创业园
水产局
陈再道
大本营
聚合物
晚间
吉新鹏
舟曲
程志
俘获
氱
摆放
塞尔维亚
不怎么
妇孺
网具
李建明
吴定富
南襄
车城
开发型
长衫
送行
过招
刘和珍
交货值
乔红
海军工程大学
汉口站
江汉区
双湖
熊召政
步子
市郊
幽州
名特优
残存
六中
型谱
几杯
后河
周礼
周代
八成
夫人城
筋骨
陶驷驹
此话
雨量
肺癌
竹乡
顾秀莲
建始县
竹溪县
信春鹰
文东武
农林牧渔业
猴头菇
道教协会
白夜
北河口
小女
王聪儿
木业
成思危
点火器
袁行霈
比达
焉耆
曼联
谭家
桌椅
牧刘表
停放
传人
周正庆
高检
满口
时不时
软件园
松滋市
油饰
陈章良
刀美兰
苦练
鳊鱼
放眼
洁净
归附
熊十力
脂肪酸
权威性
侵权
流淌
改装车
针刺
死守
科技园区
中国政协
东坡肉
正色
大悟县
妖魔
脚跟
叫嚷
头等
药房
全村
徐天川
脉搏
二十万
乐舞
光子
涌入
杨国庆
凸出
东西湖区
权贵
神农溪
救国团
弘治
刘积斌
王立平
抗日救亡运动
沉船
庞德公
玉米棒
佛教协会
令狐大哥
林文漪
终日
腾龙洞
清早
发布权
冯之浚
韩先楚
万线
菱湖
黄埔军校武汉分校
香炉
振动器
地毯厂
扫除
侠义
一步步
王必成
荆沙
程贻举
店主
奥林匹克
三自爱国
梓树
金利
宽带
杨献珍
一盆
浓重
宰牲亭
王茂林
石象生
江猪
史籍
兑现
堤垸
灰陶
嶯
考究
隔河岩
贾亦斌
山羊肉
焦枝线
陈宜瑜
任贤齐
升迁
李志高
体虚
李树文
洪湖市
许智宏
深重
搬出
美术字
盗窃
蒋正华
安息
消防
春义
扎伊尔
中程
全神贯注
卢瑞华
气旋
鱼花
孙金龙
把持
恶鬼
余米
湖北省物价局
文选
鱼松
冲撞
杨景宇
买房
贴现
导出
湖北美术学院
利川市
北京市劳动人民文化宫
杜铁环
叶君健
措手不及
荔枝
磷肥厂
李小双
成交量
热能
让给
激光器
基督教协会
宣恩县
迁入
城郊型
统治权
两万
袁宗道
舒惠国
自力更生
张国光
红光
歌手
王梦奎
陶伯钧
办好
嘉木样
石广生
孝感人
完成率
中国人民解放军军事科学院
贡士
南口镇
埋头
七八个
易贤忠
黄梅县
科林斯
谢皇恩
别国
吨粮田
十字军
抽签
彭桓武
彭克玉
陈圆圆
嶉
惋惜
麻城市
邢世忠
东湖开发区
郧西县
备降
沙市市
杜宜瑾
李珊
本体
农场主
殷海光
良知
沙咀
停车
慌张
算作
广水市
西塞山
联网
植物体
太晖观
钱运录
出事
胡光宝
南漳县
孝昌县
入党
升腾
哲理
十四所
东连吴
季梁
王佐书
上篮
银海
千秋
胡德平
东宝区
苏轼
涂长望
高台
汉阳军
南振中
不列颠
古月
毛发
斜眼
流产
湖北省财政厅
桂鱼
活性染料
引水
合唱团
王怀远
不计
过错
好日子
军需
道家
志军
堰桥
玉泉路
崇敬
陈昌智
西德
内务司法委员会
彩虹
家门口
速生丰产林
杨晓波
杨国屏
高家岭
大寿
第十七期
通城县
谢伏瞻
时会
差遣
糖色
时装
维系
严义埙
欢快
谢佑卿
王学萍
王利芬
张明楷
质朴
武连元
黄石港区
张新宝
金炳华
梅新育
天主教爱国会
姚期智
肄业生
皈依
谌家矶
辜胜阻
阉党
杨业功
杨摩西
承接
谭家渊
于汉初
感性
任克礼
王尚荣
曲目
济南市
祝铭山
米公祠
亿株
二等奖
李元正
解放公园
单果
人形
徐复观
白昼
夷陵区
划出
夏赞忠
曹燕珍
韦家能
熊有伦
连续性
茄汁
如来
汉江全
新洲区
优孟
关广富
转速
老莱子
敬佩
胡贤生
十多起
马春花
郭振乾
王家耀
武汉职业技术学院
西朝东
干椒含
矩阵
酒保
振荡
机主
聂凤智
主治
侯义斌
沈思
隗福临
迂回
李重庵
庄公惠
壬子年
超声
背负
张毓茂
科教兴市
徐志纯
定论
铁山区
第一罐
等额选举
下陆区
周坤仁
吉尼玛
宜城市
王维城
定点
官绅
王宁生
天心洲
欧阳
桑国卫
周纯全
刘明祖
吴基传
郭凤莲
上爬
谷建芬
长江三峡水利枢纽工程
禁捕
九州
傅振邦
悬挑
装卸量
羞愧
秦国
可比价
干粮
铁戟
鹤峰县
谭元春
来凤县
咸丰县
汉川市
南岳山
久远
王建安
立法者
刘精松
张继禹
宋教仁
礼节
捐献
赤壁市
郭锡章
环境保护部
朱相远
赵可铭
粉蒸
枝江市
立于
杨可世
张志坚
化学元素
王玉珍
河子
山自西
李新良
石牌岭
卢邦正
王新亭
起始
黄瓦朱
二七路
安邦治国
王永炎
原籍
郭超人
嘉鱼县
老母
杨闻孙
张桂华
沈辛荪
郭永宏
明太子太
杨国梁
张业遂
科隆
孝南区
伍增荣
青木河
七星鱼
王作荣
曾为楚
东升镇
杨兴富
任茂东
黄知真
聘为
朱阳湖
援引
环境与资源保护委员会
唐良智
柳湖坝
米业
刘道玉
生物圈
童庆禧
二柱
二楼
刘卫东
楼阳生
李金早
郭生练
刘石泉
安七州
李连宁
第三十一次
姚湘成
王冬生
邹高阳
黄州区
庶民
孟尝湖
戴证良
八万斤
汪潮涌
黄州菜
松林山
张培刚
王祖训
罢官
蒯祥同
秦置南
潘粤明
西塞山区
张学东
改由
乌云其木格
王利明
陈币桥
朱家渡
曾子墨
李行亮
标准计
颜邦屏
周森锋
梦鸽
杨家潭
赵家湾
李绪鄂
吴燕生
连心桥
神皇洲
张昌尔
张昌平
谭家洲
肖家岭
华容区
山粟林
龙合玺
余少群
民院路
容水量
学苑
恶狠狠
秦家洲
严智泽
保贞堂
山寺镇
庹宗康
冯云乔
公众网
江波渡
张维国
樊城区
胡佳
荆宜菜
石华堰
伍家岗区
鲁磨路
卜学亮
梁子湖区
侯长安
刘亦菲
黄康生
彭红艳
蹊跷
杨晨晖
比划
粟田湖
声乐
西陵区
徐永清
谭子拐
华辰春
硚口区
掇刀区
荆府
乌拉圭
李宗翰
倪岳峰
罗亚蒙
浠水县
蔡宏柱
楚纪南
蔡文静
贺一诚
杨叶湖
梁孝宣
十一五首年
吉象牌
吉象
陈难先
欧阳祥
林兆枢
魏兴郡
玉田寺
图道多吉
郭有明
邮科院
茅箭区
陈东升
刘湛恩
俞小凡
羊子庙
鄂三州
蔡家潭
鲁桂成
经江波
朱雅琼
郭天民
武汉东湖高新技术开发区
王家墩
王家岗
王诚汉
瞿家湖
黄橙子
张佑才
徐立华
宋照肃
居文沛
喻家碑
蒯鲁班
李大双
电离
马家棚
闻世震
涂黎曼
产业链
图丹
陈兴瑜
点军区
王茂润
何晟铭
严晓频
边孤石
兰世立
黄家湖
邱四豪
贺炳炎
明文禁
成清波
吴少勋
黄格选
杨铁心
柱洞
鄂菜鱼
照应
池月堤
松江
茅草街
津南
自营权
充斥
改观
王祥喜
池际尚
唐一菲
胡黎明
东湖高新技术开发区
秋审
兰湖
咸安区
徐家岗
鸽子花
新江
杨波坦
方李邦
刘子厚
李建群
李从军
南洲子
秦属南
毕家荡
关路圻
福银
茅林口
农业与农村委员会
罗汉
黄月英
王宋大
袁思怡
吴德馨
万寿羹
调味品厂
张蓉蓉
尹集镇
地板厂
陈建生
彭清华
倪家塔
阳三蒸
相逢
毕家塘
周少波
方小顿
李翊君
钟阳阳
制动阀
松水桥
徐高栋
江家岔
修承天
裁军
油榨
徐小凤
秦克湖
韩宁夫
季家嘴
区政
高陵镇
南河洲
武汉站
阮成发
杨德清
楼式木
南河头
纳孙夫人
周玉清
里海
团风县
飞往
公凸
子童阁
桂质廷
伊斯兰教协会
雷家沟
明武英
楚源牌
毛如柏
许志琴
王云龙
胡康生
谢丹阳
黄古蒿
古三国
尉沐昕
王伊锋
陈大民
秦钟英
安陆市
明礼部
孟庆南
命中率
玉皇剑
道特
武敦儒
周传雄
李儒雄
麻辣酱
古长堤
汉施路
五横
焦柳线
贺龙来
袁汉民
叶海峰
九阳
九龙
水果湖
鄂城区
久美
朱邦复
周家湖
李新觉
杨柏龄
李慎明
夹攻
尹汉宁
计划生育率
陈家铺
三千粒
陈佳贵
刘雪荣
喻林祥
杨同嘴
荆南府
侯张信
韩高湖
钟朋荣
傅自应
丁大旺
汉丹线
危品
曾令良
王太岚
李作荣
审问
张润斌
蒋红星
广东核电集团
姜声扬
池宇峰
沙洋县
刘国正
范恒山
田长霖
李明豫
樊启鹏
奉恒高
蒋方舟
闟
石寿永
牛皮
胡厚昆
普圣寺
孙必干
栗林嘴
龚泽艺
李春亭
杨臣刚
东湖新技术开发区
石静宜
艾春荣
田长焯
曾都区
孙家拐
莫艳琳
武昌站
魏复盛
郭柯宇
武汉东湖新技术开发区
杨家台
区四园
刘应明
孔祥复
点穴
长岭岗
汪爱群
杨长槐
蒋硕杰
汪习根
田承忠
南岳尖
宜都市
张龙俊
刘黎敏
范蠡庙
王梅祥
雁湖
小河口镇
李家墩
段思思
鱼氽元
马湖村
十八岁
肖海亮
阳府
宝业
分团
刘冬冬
蒋树声
蔡甸区
政协常委会
左传
汤洪高
王若涵
乌日图
蒋远华
苏慧伦
老洲岭
陈秀榕
鱼原
孙晓群
习家池
叫唤
沈春耀
黄二州
黄家潭
刘雁飞
赵家条
刘合炳
张舒媛
何晔晖
叶如棠
白云村
江夏治
军令
张美兰
费胜潮
柯约瑟
周培公
石安
由藕池
胡雅歆
珞珈
别必雄
邓家岭
吕忠梅
卫铁
古华容
袁姗姗
单果鲜
宝海
夏佐全
高凌风
凉爽
郑肖庄
陈家湖
赵钟泉
裴高才
武汉经济技术开发区
徐克俊
邹远东
万学文
黄莲湖
李三春
花坛
潹
官田湖
张振仕
杨苗洲
防洪
武麻
马林工
新开铺
刘振伟
化军
黄金湾
王以铭
张智华
万学远
姚来泉
庹宗华
老张
罗家墩
陈艺戈
田玉科
郑李辉
陈木森
上官洲
大德
大步
坚定不移
专员
伦理学
港元
抑或
封建主
两倍
茶园
帝位
司马懿
透镜
加纳
小河
学风
扔下
署名
衍生物
樿
村里人
胡青牛
坑洞
太医
嘲讽
拜谢
吞噬
定于
梳理
东华门
喽罗
收买
突击队
供水
艳丽
识字
心动
器皿
全岛
淋巴
夐
任弼时
颇具
期盼
关爱
各具特色
信誉
恶斗
政治经济
全过程
作好
万千米
十五日
咚咚
经略
戎装
兵丁
滈
主干
负伤
呬
顽皮
狂妄
苛刻
王侯
堣
逃难
种属
电解质
王重阳
装机容量
抢占
俄国人
砖石
快点
陈新甲
为所欲为
船体
公立
大病
国际性
拖欠
改写
公开赛
开平
玉带
嘀咕
富农
弽
看样子
不可不
加固
小手
各式各样
宽恕
混沌
照旧
海盆
出示
就职
短命
盟友
裁减
惩处
第一道
撞见
老老实实
出外
衷心
滞后
羞辱
麻将
楼顶
正版
各县
施礼
国民收入
国势
称道
乡里
爱惜
书上
约翰逊
多日
钢刀
嗓门
亲笔
恕罪
信道
奉旨
阴茎
祖母
书法家
居中
北半球
第二名
接班人
援军
第七章
哈佛大学
至正
请客
拍马屁
高价
投票权
高官
飞过
优越性
谢杏芳
正向
洿
过节
愣住
足见
囚犯
肋骨
鸭绿江
不力
退路
踊跃
国政
欧几里得
商丘
时隔
城市化
沉沉
平庸
琼斯
空旷
第二条
藏身
猛虎
荒原
显见
层出不穷
下意识
全景
决无
门边
出租
社员
长相
药方
订货
庄稼人
楷书
达标
呆呆地
涨价
胃肠
千金
次子
王小兰
认清
流浪
追寻
可否
退去
王道
鐏
买办
好消息
拍打
漠北
禅杖
昨儿
客流
胡适
原始社会
忽悠
美德
评论家
发亮
创造力
奥巴马
合伙
喷气
所得税
响动
剥落
庞丽娜
同日
体育馆
惊骇
劳动资料
画派
迟钝
九大
黄纸
选购
越冬
无权
政客
吐鲁番
唆使
诚然
五尺
肾功能
边远
公差
张望
担架
欢庆
称得上
二十五年
烧香
万方
带宽
藏有
公众股
贝海石
发烧
端详
想见
谦逊
混入
微粒
致死
武则天
临头
误导性
门派
巴不得
核能
下官
愉悦
恩人
恰恰相反
坚韧
原野
便士
地主阶级
玩意
雷霆
过河
激进
流落
失业率
成行
摄像机
省里
夜幕
道谢
鳎
行当
愶
彩票
胡思乱想
从政
仰慕
朱漆
大气层
牵动
肺炎
清查
开进
谅解
四五
柳树
比方
功名
白细胞
白酒
归入
侄女
刘正风
掉头
攻略
甩开
鄱阳湖
十余丈
河内
六位
求学
征兆
易经
杀入
资历
击毙
惊吓
西双版纳
尼日尔
总而言之
十二个
懊悔
拘留
二十一年
李中堂
播出
驾驭
牛市
新生儿
黄河流域
酸麻
文臣
残破
白血病
向量
光速
推移
下丘脑
风速
总工会
闪光
顶峰
油灯
里昂
检索
心满意足
炴
小车
甘愿
指针
孙悟空
浓烈
瘟疫
丹青
全天候
顺应
该党
破口大骂
官制
苦于
音译
汤姆斯杯
农民工
旧石器时代
北郊
扎营
绩效
剧照
社会学家
追杀
邢夫人
自私
吴佩孚
旗袍
榴弹
破门
把守
商会
火龙
位移
中科院
赤手空拳
激活
参政
我辈
小妹
拍照
联邦德国
突袭
组装
复试
合唱
照看
基督
善恶
吓人
非正式
处以
境况
旧社会
国际队
稳妥
构图
上皮
陕甘宁边区
彗星
许诺
省得
特此
受刑
底座
考古学家
狠毒
吃苦
入狱
西柏坡
老爸
大便
缺氧
常州
字号
中国画
手头
前列腺
清人
庯
人质
缓存
小队
公司法
法宝
敓
里里外外
眷属
脸庞
失效
三甲
启奏
晕倒
旋涡
走动
准噶尔
念书
统考
十岁
胡耀邦
地底
刀枪
棉袄
体液
得逞
怒不可遏
古尸
存储器
高加索
想方设法
嚫
郡县
脚踏
绝境
免去
几项
变幻
议事会
剖析
详见
留住
几十万
萌发
年产量
杨尚昆
受众
欠身
单项
总能
牦牛
债权人
原子量
万震山
枪口
刑场
重围
言辞
创设
善行
社论
训斥
条子
李瑞环
明明白白
吼声
下方
本科段
怀有
恒河
特异
丰盛
家喻户晓
降雨
十日
杂草
第三世界
两列
分隔
量子力学
除掉
纸烟
雇员
前胸
绝灭
回击
经得起
阴暗
醒目
二十岁
排泄
岂可
劲风
自主权
沥青
多重
二中全会
薛传薪
恍然
几眼
烧杀
反贼
六中全会
开赴
梦境
话费
阿波罗
黄蓉笑
伍廷芳
条文
指教
猛扑
内膜
第二轮
内侍
囦
协奏曲
金元
攻取
阻塞
响彻
贝勒
孟加拉国
皇马
公孙胜
惊惧
湵
做客
上上下下
空荡荡
特制
侧耳
支书
圣上
饭后
论战
现阶段
紧要关头
分立
电讯
许昌
立宪
转眼间
讲演
红绸
卓有成效
稳住
无敌
插嘴
交情
老哥
宗法
海河
膳食
君士坦丁堡
手心
美国国务院
电磁场
岳母
香精
二十三年
暴徒
唤醒
发兵
暮色
实则
冻土
字典
观摩
性欲
护照
魏巍
南麓
搬家
人力资源部
硬着头皮
上层建筑
门阀
龙井
白痴
收音机
近在咫尺
勒马
烟叶
长诗
铁骑
饭馆
王妃
个数
夺目
通缉
阳台
颠簸
染发剂
纠葛
两千
正派
脑门
行署
拆迁
几遍
精绝
一百个
伊万
精神病
摇摇晃晃
车夫
眼圈
呼和浩特
刘玉尺
暴躁
须知
第二步
内参
滴定
乌黑
自刎
郠
天命
脾胃
弱势
人丛
咕咕
液态
顷刻之间
折叠
避难
该行
第一颗
穿梭
粗暴
建设性
俸禄
山野
楄
底盘
有赖于
僧道
织造
吵闹
逼真
换装
点中
用布
双层
恶贼
经销商
老式
竹子
听罢
二道
后唐
重创
迷糊
专权
敌意
复旦
伤痛
支气管
遮掩
河西走廊
塘沽
关岛
多年生
姥姥
基岩
天宫
密林
造福
史前
泪珠
晦气
从容不迫
不为过
目不转睛
啀
凝重
裁定
一开
舍人
摆摆
变压器
混交林
啐
拜年
冷酷
升华
升空
支线
噩梦
王后
衙役
古玩
窍门
性感
锐气
疾苦
立国
据点
花白
导线
假说
印欧语
单方面
花鸟
幻觉
脱水
两匹
徽州
弹簧
准备金
五中全会
改元
任由
平遥
居士
煎熬
坐镇
隐隐约约
荡然无存
题写
小可
践踏
浐
耕耘
友人
珠子
怪人
军事家
充裕
品味
矮胖
遇事
步兵师
寓言
中生代
戒律
出息
公家
第四节
横幅
物业
不顾一切
暗杀
委任
挂钩
考题
水师
苍老
海湾战争
出入境
马德里
壮士
闲置
农具
病床
综合国力
连结
借机
几率
张宗琪
著录
纪念碑
情结
包天剑
字画
开朗
缠住
胁迫
音乐家
野菜
投射
洗手
洗劫
小肠
第二届
旧金山
去掉
诗经
源自
当之无愧
七八
班级
坦桑尼亚
外流
流通领域
老太婆
天鹰
耗子
西南地区
容积
笁
晋级
出题
通告
五指
迷茫
暗淡
何如
短刀
收起
七里沟
高一功
婉转
苦闷
买方
起居
公用
精良
新编
橈
印第安
旅游胜地
修正案
手提
前秦
螺旋桨
窗前
大酒店
专人
皮球
气喘吁吁
禅师
睾丸
第六章
土木
恼火
座舱
内里
好感
欓
荒地
粘性
妫
男士
围观
孟加拉
外壳
差错
韦一笑
没关系
铁匠
五星
暗藏
回忆录
上古
便衣
休养
危亡
故人
剧中
配位
文帝
攻击机
空空导弹
农副产品
床头
英明
异同
一纸
入土
精简
无畏
暑假
度量
情谊
老一辈
上房
不要脸
悖论
二百
骏马
君主制
喝醉
女排
大专院校
土改
紧缺
获得者
天井
姊夫
梁子翁
王瑞芬
赵云
涂抹
自小
电灯
至极
展览会
静静
鍢
充任
挑剔
嫂嫂
三维
稻米
标明
鞭炮
菠萝
溪水
殿堂
压根儿
厌烦
谈何容易
摔跤
宜人
背脊
憳
敦促
主动权
过失
受苦
撤走
世界大战
步步
中国联通
方法论
哎哟
鐧
粉身碎骨
甲醛
光是
不见得
几招
大振
大捷
下决心
黑豆
附有
十几岁
顶点
参差
躲闪
夜空
哈密
常规赛
婅
辨证
鑵
口诀
脸皮
凤天南
本钱
汇兑
雅克
可贵
画廊
吃药
斺
多一些
上街
到手
搭载
打赢
送达
对得起
一肚子
不济
壮烈
分列
窡
大中
缅怀
溃败
不经意
瑧
鳞片
助长
敌国
尿道
也门
止不住
贫乏
亚麻
挥发
矩形
选举法
电动
师爷
矿工
矿井
密谋
满文
战利品
桥身
相称
一整套
月季
顿足
马三俊
何者
棉衣
五万
路途
通货
加油机
升温
瀃
交通工具
东北军
林震南
杂技
心得
分批
惨叫
资源管理
己方
冷门
寨主
缠绵
破损
摆布
刺激性
旗子
离职
有期徒刑
短小
改型
艿
环顾
抢险
红晕
互通
赵一荻
墍
比尔
郝大通
田归农
金瓶梅
罗斯
此案
低潮
纽带
六级
僵持
杀敌
银行家
要领
商品生产
苦战
出境游
摄取
险峻
出过
委实
倾诉
铁丝
不法
气管
谕旨
两份
裇
聊聊
受用
违者
甬道
阐释
一目
西沙
蛓
数步
玄武岩
朝服
巴拉圭
披挂
进食
奴家
牵挂
德化
质问
手续费
摩尔
流体力学
皮层
投篮
伤寒
何太冲
缴获
害羞
战斗部
加蓬
全球通
领衔
钢管
滔滔
报销
总编辑
饭桌
金针
守御
打狗棒法
旇
浩劫
防汛
军部
交易会
汇聚
喜好
舍命
劝告
新房
亭子
有效性
寄主
雷锋
捂住
选中
讲课
使唤
轻盈
超群
肤色
奉承
加利福尼亚
兴隆
英镑
一瞬
花草
劲敌
夏商周
会面
石室
手稿
手套
午夜
珍藏
美分
人际
忘却
端庄
列传
德里
奸淫
金蛇
情状
臣子
天堑
不相干
徐以显
战战兢兢
消化道
一心一意
三重
这一来
姑且
出狱
山后
蛤蟆
搠
纯熟
碎屑
中央政治局常委
千瓦
黄道
正常人
漂流
白鹿原
纳米
遥望
师范学校
坃
马鞭
青春期
鐞
填充
青石
咒骂
大发
离散
屋外
晴天
关羽
四中全会
打乱
迷失
那马
中国人民银行
忽而
美的
下地
妇联
女朋友
全歼
衰弱
全副武装
作证
参预
无与伦比
透视
濅
耕田
火枪
海尔
木制
松林
西西里
小朋友
道义
鼠标
商务部
放映
有加
献出
龙舟
鐙
学制
驱除
中人
汕头
特异性
虚构
触发
平淡
装填
叛逆
冲入
财主
贵金属
授课
士族
乘马
莫不
蟸
云中鹤
千家万户
分身
手册
鐑
家禽
浸透
开学
玉兰
不一会儿
主营业务
排序
富饶
久而久之
岛内
宋青书
丧生
堬
名录
硬化
百般
海浪
请假
海报
木星
刺绣
强忍
男孩子
品行
儿媳妇
瘦子
彂
做工
祸害
隆冬
就近
心理学家
索马里
呯
设宴
抗洪
贫僧
谚语
司徒
劳德诺
咆哮
钉子
老太
五百年
拦阻
多亏
后妃
卫春华
完蛋
八名
证人
男友
怒吼
沉没
匮乏
名校
祖上
券商
七天
朗诵
媲美
阿拉伯语
招安
野猪
狭隘
寺里
坏死
汉王
繁复
轮式
第二道
辅导班
缩回
濓
跺脚
英国政府
工党
致敬
成婚
分析家
阿拉斯加
鬼鬼祟祟
猴儿
门板
巡捕
安歇
枪响
西藏自治区
书记处
束手无策
厌倦
王国光
诸事
钱之江
剧种
佛法
鬼魂
聚众
淹死
吸毒
上限
这伙
庋
共建
无私
鎻
高丽
核试
进山
全真
扣押
疏通
姨妈
九卿
梦幻
宋庆龄
舒展
楋
清史
互利
环形
恶性肿瘤
洗净
未定
印章
笑眯眯
忏悔
哥儿俩
诗意
酒壶
脸蛋
谷城
一中全会
休假
社会民主党
超标
大顺军
冰块
国际货币基金组织
军售
写给
接踵而来
长成
特困
深邃
过长
竷
波涛
羚羊
不正
高炮
乙醚
锯齿
队里
责令
急躁
举子
灵机一动
半封建
无为
想象力
五卅运动
大乐
大帝
书影
碧绿
申花队
大惊失色
殖民主义者
曹丕
玉山
了得
相容
说了算
四条
告示
规律性
审时度势
遭逢
公证
方始
真实性
拉拢
准时
主旨
吓倒
六朝
三岁
无异于
报国
终南山
门生
季节性
热血沸腾
新疆维吾尔自治区
严明
共存
枸杞
悄悄的
测算
巴结
次生
中式
中欧
降温
角质
头绪
孙承宗
肉眼
韧性
择业
人迹
一例
慈禧太后
教育局
有误
后堂
缂
王希烈
啼哭
潻
宫颈
香火
全校
密室
优待
自个儿
变相
排行榜
曹云奇
工件
海地
摇篮
商品房
接种
停靠
河间
锦旗
骡马
稀罕
侠客
三个代表
蟋蟀
禽兽
看得出
莱茵河
丑恶
迎合
那会儿
眺望
曞
索取
九品
饭铺
营业部
伏兵
美联社
深思
必要性
传承
沼泽地
心甘情愿
群众运动
安阳
对答
狼群
回首
营生
上吊
核弹
光顾
老区
每块
邓肯
令尊
脱险
室外
信息系统
亲家
中国区
金华
顷刻
专栏
墓碑
承载
延缓
管线
带状
土丘
普普通通
珟
坤宁宫
妙计
愚昧
仓皇
杞县
天象
章启月
尽心
系统工程
近前
横亘
摇动
十四大
长处
毛皮
涚
由衷
冒险主义
光绪帝
花厅
一本正经
装药
屠龙刀
毅力
割裂
垂危
违抗
相干
光波
默认
发审委
二千
抵抗力
王九思
风尚
骷髅
很难说
喝问
聪明人
嚬
发号施令
青州
遂行
名言
淋巴结
跳板
阻隔
花铁干
靠山
叞
导电
汇成
诊治
亚美尼亚
联接
万公里
反对党
不顺
蕴含
凭着
为官
性急
先天性
宣抚司
金沙江
臀部
脏器
王权
考点
骇人听闻
官兵们
消遣
察哈尔
武职
两片
双星
两架
很早
新军
行家
营运
还击
疏远
大伯
大抵
黑洞
半步
侊
功德
神父
空手
领海
去除
园中
尾翼
缩减
糟蹋
慈宁宫
许多年
邢台
血红蛋白
集散地
争气
幼小
骨质
凛然
强暴
相伴
雷阵雨
稀释
安南
注目
山沟
篱笆
彭连虎
先师
输血
东家
林伯渠
建桥
景山
加州
虐待
购房
源源不断
不俗
迎风
鏇
增补
郭沫若
吸纳
公国
张永红
转正
交还
武当
百科全书
右脚
苗若兰
遗弃
客栈
借助于
地区性
但凡
武林中
饱满
赌场
复出
四爷
教官
汉唐
两周
亮度
轮换
吉米
召唤
炵
木柱
天龙
初三
沙特
沙洲
慛
歇歇
出师
原件
悠闲
私事
恐怖主义
燃气
幕后
轻装
白菜
哈哈哈
双亲
提携
神医
惊天动地
当夜
着眼于
精光
西风
核准
独到
避孕
单单
噪音
第三位
绿林
儒生
香水
燃起
种师道
使用权
超额利润
考试院
空缺
攫取
大个子
水声
跟进
看准
诗作
青藏
拍马
雾气
园内
广为
持刀
托管
单于
战前
三丈
大法
尚可
传遍
收盘
体育运动
徒步
果品
手工业者
血糖
毛细血管
中央纪律检查委员会
第十一
宣抚使
陕甘
上交
磁化
上楼
美国国防部
增减
莫名
端倪
五次
玩儿
将令
康德
力主
庄上
无政府主义
行车
行踪
代表人
孝顺
斯文
几层
悜
分红
二老
二元
疲软
组织者
半球
责怪
鼻梁
问及
赌气
公孙谷主
四尺
灌丛
买下
主食
张君宝
开放式
旅行家
胆量
本子
怕人
非金属
一百年
愤恨
辂
喷射
中曾
呼救
徐世昌
文廷式
竦
党人
党籍
苍天
佛祖
圣火
抒发
阎王
光度
心肌
谷主
左岸
共鸣
直流
行宫
一席
余部
一瞬间
听懂
几岁
马达加斯加
被告人
后山
心旷神怡
朱笔
关东军
前朝
闭塞
罢市
开场白
祖坟
执着
理想国
责难
笔法
尸骨
随军
四壁
孙女
长白山
忘掉
唐家璇
法国队
伸长
撤职
坦白
图腾
友情
机缘
粘液
江边
外戚
待人
星期六
微量
黄牌
黄牛
街巷
淡化
扶植
玩弄
谋划
轻薄
不公
受阻
寒暄
说谎
各式
寝室
第五章
低调
练武
一无所知
国名
起用
探亲
赫鲁晓夫
仰望
英联邦
喜出望外
难逃
拨开
清香
岑春煊
提供商
生活费
卡特
斜坡
进退
须臾
物理量
行贿
名堂
面板
代言人
寒光
散落
松手
海豹
研习
凝望
国大党
杀头
弱者
狠心
出汗
凑合
先人
安史之乱
甘薯
旗舰
严严实实
长长
鄙视
潜能
越野
美术史
靠拢
眉目
南开大学
佩戴
片名
被褥
瞳孔
新生代
不单
双刀
脊背
陈名夏
窗帘
公鸡
剿灭
军饷
大惊小怪
理论家
推倒
自民党
罗小梅
酸软
朱仙镇
技术性
商讨
林肯
男儿
洪亮
焦耳
简略
洖
成都市
马鞍
喀麦隆
朱祁钰
人氏
顾金标
如期
商宝震
游街
克里
缩写
穴位
扔掉
浓烟
海宁
美国队
杀气
银行卡
怎么着
门路
濈
毛文龙
沉降
上班族
网队
迎春
五官
算命
免疫力
载有
占卜
法度
得当
集群
湖州
明晃晃
保重
捆绑
妹儿
河滩
雄姿
始祖
个人崇拜
无罪
虎口
辜鸿铭
甲基
大意
调来
二品
柯达
山脚下
自个
两间
利用率
浅海
大兴土木
女方
柏树
谢若萍
扫帚
擂台
假话
一声不吭
德育
宋远桥
低落
忚
动辄
悬浮
机灵
遇难
恪守
述说
战犯
津巴布韦
故事片
龟兹
经常性
猴王
溪流
胸怀
枪支
舍弃
宀
洛克希德
败仗
奢华
非典
摄政
城里人
流利
緰
悊
建树
热衷
秦桧
法门
排行
日寇
脱颖而出
多一点
放大器
灭火
引向
不二
回声
上朝
较之
惨烈
闲谈
舱内
烧成
义愤填膺
疏散
黄埔军校
领导层
略带
亲率
睫毛
猓
白丽娜
价位
小钢炮
征伐
表征
工钱
文联
从未有过
创维
动武
权衡
天宝
兵书
殉国
年长
匪夷所思
征讨
蒙古国
外传
电离层
备忘录
慕容公子
自我批评
定都
魏清慧
耗尽
五位
跃入
逼人
谋略
般若
触怒
两碗
大中城市
原创
当家
命脉
国境
费时
收藏家
入阁
大坝
与非
莫桑比克
孤单
那根
风韵
短促
组织部
地下室
剑桥
专卖
更具
赢利
犯罪分子
民权
礼乐
小贩
小鱼
念念不忘
斩断
归宿
丛生
自助
电厂
游动
字符串
取食
兴致勃勃
皇朝
打捞
基座
拉丁文
衬衣
沙土
细细的
台大
闸门
血泊
苦心
特使
上映
摆设
玄武
长足
辉映
颜面
买入
雷击
能级
双水村
裁缝
大会堂
簺
不配
用语
胶体
可好
两米
核反应
公馆
第十
发布厅
嫦娥
头子
老高
无望
光复
借给
排球
乱石
加速度
车队
一刹那
开场
夏日
拳击
散乱
陈永福
先烈
成功率
仿真
锐利
小店
法名
动量
低微
天仙
理直气壮
肥力
物理化学
横冲直撞
致密
预备队
时至今日
要犯
洞开
豪迈
尖刀
山丘
掩埋
揭晓
饮宴
华美
上访
闽西
蔑视
九天
南疆
两河
辽西
栬
神明
金冠
贼人
掌印
歌功颂德
松山
祖大寿
光束
今儿个
房舍
周三
执事
留恋
渔人
协约国
下半叶
手书
霸道
中央书记处
歌谣
俭朴
血肉之躯
报应
斑点
小觑
就诊
无济于事
燂
廉洁
踏进
通知书
盛世
藐视
敬酒
报业
球门
兵制
主攻
巴塞罗那
取舍
强奸
咱家
折回
根系
云梯
洛阳城
庄客
抬手
鲁莽
禁毒
叓
可逆
真挚
街市
封存
沈绿爱
抚慰
百里
头巾
不言而喻
唐玄宗
热衷于
受罚
冷气
躲过
字儿
倒腾
倒像
新旧
书架
留出
维吾尔
跪拜
分派
重病
造船厂
跳伞
舰炮
谎言
随心所欲
荷马
缃
屋檐
荡漾
英格兰银行
清热
清秀
管子
反导
中小学生
憧憬
牧草
含泪
未婚
率众
格斗
税率
雌激素
名利
钦定
现时
江阴
鐖
潕
行之有效
西安事变
避风
三杯
本周
叺
前台
检疫
陆承伟
狂欢
恒定
宣武
苦涩
独裁者
站点
长生
五世
长发
叶二娘
柔情
北坡
危险性
爪哇
轻纺
同名
玻利维亚
绝无仅有
行政院
西学
一如既往
二号
情由
葑
弹壳
小说家
地带性
附带
红肿
甜味剂
教头
茶碗
厄瓜多尔
普遍性
于今
浗
达赖
举足轻重
账目
冠心病
实务
震颤
贝类
基团
停牌
成形
诚心
接通
站稳
唱戏
俄共
撰文
帮帮
飧
德黑兰
伽利略
